{"\u2581genuine": 8869, "uo": 20996, "\u2581NL": 22980, "places": 23726, "ivid": 1800, "mus": 14765, "ixir": 32446, "out": 549, "\u2581Conscious": 45696, "\u2581Ideally": 40168, "\u2581vul": 24578, "\u2581Heidi": 45619, "akuya": 29964, "\u2581architectures": 45720, "\u2581aur": 45815, "\u2581clasp": 47526, "\u2581lightweight": 18801, "\u2581Telecommunications": 48768, "\u2581DVDs": 36063, "\u2581Mutual": 48908, "uly": 2163, "\u2581NRA": 24063, "\u2581awards": 13405, "\u2581ACA": 27729, "\u2581rubble": 29733, "\u2581Lama": 36288, "\u2581longitudinal": 36312, "\u2581dangers": 16270, "\u2581Through": 9662, "amps": 9531, "ously": 3582, "\u2581trades": 17775, "\u2581existed": 11297, "\u2581Fridays": 45112, "ijk": 46062, "\u2581comedians": 43621, "estinal": 34385, "aspx": 31841, "ociate": 47716, "sea": 8684, "\u2581bladder": 35019, "\u2581Poor": 23777, "\u2581pastors": 44079, "\u2581ordinance": 19885, "\u2581rockets": 20394, "\u2581USE": 23311, "state": 5320, "}": 193, "\u2581aspect": 4944, "\u2581calendar": 11946, "\u2581RCMP": 28898, "\u2581Lod": 45339, "\u2581clutter": 45444, "\u2581Fug": 47933, "Privacy": 49049, "gd": 21388, "uay": 30207, "\u2581dystopian": 49584, "\u2581Know": 9466, "\u2581Brand": 13613, "\u2581promoted": 13823, "\u2581offend": 35218, "\u2581Francisco": 6134, "\u2581Pic": 15186, "\u2581tomatoes": 24073, "Finding": 36377, "iar": 12672, "=-=-": 16923, "\u2581compost": 36642, "627": 49957, "\u2581doors": 8316, "\u2581sod": 32682, "Vol": 16699, "KB": 22865, "fail": 32266, "\u2581ammon": 35047, "ensis": 37935, "\u2581seventeen": 38842, "Digital": 27741, "\u2581nineteenth": 29767, "\u2581PET": 32144, "\u2581neuroscience": 39839, "uron": 44473, "\u2581wors": 24577, "Glass": 47799, "\u25811980": 7270, "umatic": 16836, "thing": 1298, "\u2581whereby": 23583, "589": 44270, "\u2581sailor": 43373, "\u2581professionally": 28150, "Preview": 48936, "\u2581crucifix": 49006, "\u2581plaster": 46477, "\u2581unjust": 21319, "\u2581Abstract": 27842, "\u2581Herbert": 28749, "\u2581LIKE": 34279, "yrics": 14380, "patrick": 29716, "ccording": 3042, "otal": 5098, "\u2581armored": 24957, "\u2581Township": 32216, "uran": 42312, "\u2581erupt": 17967, "itzerland": 14048, "\u2581comed": 14678, "\u2581challenging": 9490, "\u2581sit": 1751, "\u2581Mol": 18059, "\u2581mix": 5123, "safe": 21331, "\u2581Creed": 24400, "rel": 2512, "\u2581Sel": 15401, "236": 25041, "\u2581overdose": 27458, "mys": 28845, "BER": 13347, "\u2581dubious": 25393, "\u2581Healthcare": 30390, "\u00e0\u00a5": 24332, "sbm": 32411, "\u2581pedd": 36246, "\u2581King": 2778, "\u2581arche": 21045, "\u2581suggestion": 13153, "\u2581mushrooms": 23553, "\u2581buffers": 39435, "near": 40194, "acqu": 43662, "fig": 5748, "\u2581Captain": 8700, "Sing": 30075, "\u2581watered": 48125, "\u2581Gov": 11065, "Numbers": 49702, "owler": 30115, "\u2581Ros": 10119, "ebin": 23598, "\u2581acquitted": 35598, "\u2581put": 1335, "tails": 26505, "\u2581tumult": 38165, "905": 45029, "\u2581Chiefs": 18834, "\u2581various": 3073, "\u2581blend": 13617, "\u2581Blaz": 26277, "ribute": 4264, "\u2581Vi": 16150, "\u2581Bike": 26498, "\u2581multinational": 28162, "\u2581Side": 12176, "\u2581Billboard": 36330, "\u2581educating": 36368, "border": 20293, "\u2581hat": 6978, "\u2581controls": 7074, "\u2581\u00e2\u0124\u00ac": 10533, "\u2581muttered": 34143, "\u2581oil": 3157, "\u2581plan": 1511, "score": 26776, "hov": 28127, "these": 27319, "shed": 35863, "\u2581Chandra": 46396, "\u00e3\u0125\u00a5": 24541, "\u2581\u00eb": 31720, "ig": 429, "\u2581counters": 21255, "iciary": 13657, "\u2581forgiveness": 26128, ";;;;;;;;;;;;": 47040, "\u2581409": 48233, "\u2581Frankie": 48636, "oustic": 21719, "downs": 30472, "\u2581VW": 31489, "\u2581drinks": 11859, "\u2581Machine": 10951, "\u2581Environmental": 13373, "HC": 16146, "\u2581beyond": 3776, "\u2581junction": 35138, "\u2581juicy": 35176, "icho": 38821, "\u2581Balance": 23025, "\u2581apprehended": 42080, "urga": 45199, "\u258105": 8971, "\u2581gren": 17337, "houses": 20190, "\u2581compiler": 17151, "\u2581indicted": 27948, "\u2581Stafford": 30697, "Russian": 16321, "\u2581IC": 12561, "digital": 34826, "ravings": 42436, "\u2581Kremlin": 19178, "\u2581Tail": 21860, "eless": 5422, "olescent": 23507, "\u2581shoved": 35238, "iron": 2035, "\u2581pathogens": 38467, "gue": 18802, "aran": 19274, "\u2581melting": 24304, "\u2581Hoover": 31966, "Created": 42073, "Harris": 41690, "flow": 11226, "AAAA": 18023, "\u25811992": 9869, "\u2581Alm": 25110, "\u2581Reson": 44884, "2001": 14686, "\u2581Means": 28554, "\u2581embattled": 49219, "bal": 6994, "\u2581motorists": 32789, "\u2581generously": 42189, "\u2581Connie": 48607, "Charges": 37071, "\u2581Honolulu": 43397, "\u2581kcal": 49605, "\u2581Broad": 9866, "\u2581Germans": 16165, "leaf": 33302, "\u2581Vortex": 49891, "\u2581daemon": 33487, "\u2581Anchorage": 50167, "ysical": 15481, "\u2581Nottingham": 39903, "\u2581Signal": 26585, "\u2581Female": 15497, "\u2581OT": 21777, "\u2581wide": 3195, "\u2581haze": 42873, "\u2581Damien": 46208, "\u2581predicted": 11102, "\u2581lug": 49520, "\u2581Senegal": 49758, "\u2581Leadership": 27036, "imating": 39305, "escal": 47748, "\u2581+++": 50055, "\u2581conduc": 45302, "\u2581redress": 48687, "\u2581Guatem": 28272, "\u2581Hoo": 26960, "\u2581Appeal": 31977, "Me": 5409, "roma": 43003, "tracks": 46175, "\u2581fluor": 27068, "break": 9133, "\u2581Kad": 32097, "Tw": 5181, "\u2581oxid": 18863, "%);": 49664, "\u2581administer": 21867, "\u2581maritime": 30118, "\u2581circling": 43181, "\u2581NEO": 44207, "\u2581precise": 7242, "\u2581luggage": 31589, "aroo": 38150, "\u2581satisfying": 19302, "\u2581Wander": 49468, "\u2581Hawking": 50321, "\u2581sle": 3234, "\u2581Cell": 12541, "especially": 16581, "\u2581use": 880, "school": 14448, "\u2581\u00c2\u0142": 5725, "ullah": 38766, "\u2581coloured": 34847, "eded": 15496, "\u2581Arrest": 35181, "buquerque": 36562, "\u2581disgusted": 37044, "\u2581engines": 11975, "\u2581submerged": 38031, "\u2581hed": 16519, "\u2581Traps": 44211, "\u2581sill": 49377, "\u2581III": 6812, "\u2581watch": 2443, "orb": 27789, "\u2581Roberto": 32177, "\u2581hardness": 49705, "alions": 50123, "\u2581routers": 41245, "\u2581clashes": 21123, "\u2581Cre": 5945, "aiden": 17639, "\u2581shotgun": 18708, "\u2581reimbursement": 37131, "\u2581leisure": 24739, "\u2581customize": 24285, "130": 13053, "\u2581congregation": 28963, "\u2581cheaper": 11822, "\u2581congestion": 28115, "clad": 29954, "\u2581Puppet": 34548, "))))": 35615, "\u2581twitch": 37467, "\u2581banners": 32032, "\u2581rehears": 28880, "beer": 42529, "omial": 49171, "518": 44186, "\u2581recounted": 34288, "\u2581HOW": 29731, "\u2581initialize": 41317, "\u2581fundamentalist": 42378, "ynes": 25438, "\u2581Ivory": 37600, "itive": 1901, "requ": 8998, "\u2581risen": 17551, "\u2581Prince": 9106, "acies": 13534, "Async": 42468, "\u2581discrimination": 8940, "fc": 16173, "\u2581Solar": 12448, "\u2581hackers": 17211, "September": 17644, "\u2581investment": 4997, "\u2581explosive": 13936, "Gr": 8743, "\u2581Touch": 16058, "\u2581tweet": 6227, "nor": 13200, "\u2581meas": 2313, "ead": 1430, "\u2581Drive": 10075, "\u2581anarch": 14162, "\u2581RFC": 31079, "\u2581Made": 14547, "\u2581antagonist": 34768, "\u2581appears": 3669, "arger": 32371, "663": 45892, "\u2581Ire": 7282, "\u2581Warrior": 14120, "\u2581Baker": 14473, "\u2581opened": 4822, "\u2581expansive": 31417, "assic": 31736, "\u2581Alexa": 34731, "\u2581progressing": 37436, "\u2581356": 44653, "\u2581Boston": 6283, "\u2581finan": 17341, "\u2581flawless": 38971, "\u2581Accountability": 37260, "\u2581tru": 45869, "\u2581walks": 11215, "\u2581Dust": 16341, "\u2581leadership": 5632, "\u2581Libya": 13566, "Happy": 25183, "\u2581AX": 43152, "\u2581[&": 49183, "\u2581represents": 6971, "\u2581Perspective": 42152, "icles": 3084, "Contents": 15943, "rog": 3929, "\u2581epoch": 36936, "\u2581Gron": 40315, "\u2581fodder": 41680, "\u2581Nikol": 48228, "\u2581absentee": 40254, "sted": 30780, "reports": 49023, "\u2581queries": 20844, "thur": 11199, "\u2581cardiovascular": 21235, "\u2581shrine": 30082, "Fort": 22027, "ben": 11823, "Temp": 30883, "\u2581amplifier": 33483, "dot": 26619, "\u2581Mathemat": 30636, "\u2581CENT": 33370, "\u2581accelerator": 44320, "Security": 24175, "\u2581Locked": 48714, "\u2581Saud": 6847, "TX": 29652, "Hit": 17990, "ATED": 11718, "\u2581worrisome": 48468, "\u2581Activity": 24742, "\u2581Bain": 33227, "\u2581accessibility": 29070, "ices": 1164, "\u2581\u00c2\u00a5": 38322, "\u2581Younger": 45275, "\u2581worse": 4886, "\u2581certs": 27903, "\u2581Stab": 49827, "hiro": 50008, "\u2581Mis": 14237, "\u2581Memor": 41258, "\u2581upgrade": 8616, "\u2581holog": 32013, "================": 4871, ".--": 9917, "\u2581Brexit": 11536, "\u2581Jade": 23487, "\u2581Cards": 15925, "\u2581Your": 3507, "\u2581blasts": 29996, "\u2581enclosure": 30786, "ocrin": 40014, "\u2581widening": 38219, "\u2581lizard": 42507, "\u2581Erin": 28995, "umin": 7331, "\u2581ROCK": 41421, "\u2581synagogue": 42054, "\u2581shares": 7404, "gra": 46885, "\u2581topple": 49478, "ivers": 1292, "\u2581independent": 4896, "\u2581aliens": 16370, "\u2581stole": 18341, "cool": 24595, "\u2581natives": 31063, "\u2581starters": 19997, "\u2581millennium": 39311, "\u2581trumpet": 40435, "\u2581problems": 2862, "\u2581Vit": 18372, "\u2581correspondent": 21177, "\u2581introduction": 9894, "\u2581bewild": 34773, "\u2581arcs": 44707, "\u2581Amph": 40286, "Fle": 47770, "demon": 26668, "\u2581instant": 9214, "Rand": 39019, "payer": 35088, "\u2581Trash": 48262, "\u2581ps": 26793, "\u2581arrive": 9341, "\u2581sums": 21885, "!?": 22958, "RAFT": 44801, "\u2581Quit": 48988, "\u2581\u00ef\u00bf\u00bd\u00ef\u00bf\u00bd\u00ef\u00bf\u00bd\u00ef\u00bf\u00bd": 26926, "\u2581Matt": 4806, "\u2581consult": 5826, "\u2581Diamond": 13667, "\u2581Doom": 18789, "\u2581rel": 924, "\u2581Synd": 19249, "Unknown": 20136, "ently": 1574, "\u2581wre": 30255, "\u00e5\u00bf": 33333, "\u2581Autism": 39976, "\u2581escort": 27776, "\u2581tong": 10580, "\u2581beads": 36217, "Ex": 3210, "pects": 38147, "\u2581~/.": 39864, "\u2581furnace": 42328, "\u2581Earthquake": 45692, "\u2581character": 2196, "\u2581daytime": 33000, "\u2581distinguish": 15815, "\u2581#####": 46525, "\u2581fighter": 10644, "atches": 21082, "essel": 7979, "\u2581cautiously": 39741, "Best": 13115, "attr": 35327, "\u2581Reasons": 45024, "\u2581leng": 40139, "\u2581whenever": 8898, "\u2581motto": 33701, "\u2581Mei": 42345, "\u2581explos": 6155, "\u2581Psychiat": 26458, "\u2581shoppers": 30404, "\u2581Rod": 6983, "\u2581finance": 9705, "\u2581members": 1967, "\u2581traditional": 4670, "\u2581Teen": 21533, "\u2581revol": 35992, "\u2581fulfilling": 26288, "\u2581evaluations": 34210, "\u2581Winchester": 40969, "\u2581rabb": 19469, "\u2581cherished": 41339, "mma": 21773, "\u2581Pages": 28322, "\u2581food": 2158, "\u2581gad": 23894, "\u2581implemented": 9278, "\u2581alternate": 13628, "\u00e3\u0124\u012c": 28356, "\u2581inception": 30940, "rim": 3137, "\u2581Role": 21035, "\u2581Admir": 21278, "\u2581ot": 31073, "\u2581Cologne": 35024, "\u2581Exhibit": 35981, "\u2581adultery": 38814, "\u2581roared": 45716, "\u2581Giles": 37639, "\u2581iconic": 14234, "\u2581elector": 43292, "\u2581frequently": 6878, "\u2581forehead": 22746, "oles": 4417, "\u2581od": 16399, "oldemort": 24811, "\u2581creditors": 29815, "\u2581dec": 976, "ories": 1850, "560": 34236, "\u2581qualifier": 39366, "\u2581fared": 43789, "\u2581subtitle": 38061, "IFA": 19172, "uctor": 33130, "Mouse": 39744, "asant": 8876, "ssh": 45925, "\u2581sucker": 48532, "\u2581Haitian": 48824, "oso": 28314, "\u2581Nord": 18788, "\u2581holiest": 47365, ".......": 25881, "single": 29863, "\u2581dinners": 42642, "\u2581famously": 20625, "\u2581Prescott": 42656, "bay": 24507, "\u2581UFOs": 49964, "\u2581impover": 31057, "\u2581:": 1159, "\u2581reprint": 26690, "\u2581childbirth": 43987, "eworthy": 26070, "\u2581Animals": 25491, "\u2581hal": 10385, "ppo": 16735, "\u2581Fifth": 19484, "\u2581graphical": 27932, "\u2581abuser": 46702, "\u2581impressive": 8137, "\u2581crystal": 15222, "\u2581Shape": 26060, "\u2581trust": 3875, "\u2581Marion": 32574, "\u2581hotline": 47090, "\u2581Portugal": 19202, "\u2581sulph": 45659, "\u2581Er": 5357, "\u2581Bal": 8629, "\u2581Observatory": 25859, "through": 9680, "apters": 12227, "\u2581Zimmer": 19027, "oor": 2776, "\u2581Craw": 20278, "\u2581concussion": 27603, "\u2581gossip": 31015, "scale": 9989, "\u2581Penet": 47076, "\u2581bitterly": 40709, "\u2581367": 40985, "\u2581Disaster": 35314, "visors": 27782, "\u2581Nib": 49633, "\u2581unrecogn": 43584, "\u2581GPL": 38745, "1963": 45293, "\u2581impose": 13652, "\u2581Nov": 5368, "\u2581tattoo": 18886, "\u2581interns": 47367, "\u2581forward": 2752, "\u2581Blockchain": 29825, "\u2581Became": 30870, "\u2581SK": 14378, "stats": 34343, "undy": 45560, "\u2581sl": 1118, "\u00a3\u0131": 6509, "\u2581notebooks": 44036, "\u2581controller": 10545, "\u2581comparable": 14076, "\u2581wishing": 24534, "\u2581Champion": 15970, "\u2581aforementioned": 20895, "\u2581fuelled": 49526, "\u2581responsiveness": 49916, "\u2581239": 32918, "\u2581DHCP": 43830, "\u2581sentence": 6928, "\u2581Flower": 20126, "agame": 46847, "\u2581horizont": 13837, "\u2581adren": 27100, "\u2581unman": 29490, "\u2581EM": 17329, "\u2581compares": 23109, "\u2581Wend": 21143, "eering": 48167, "\u2581Gard": 12891, "\u2581denotes": 43498, "\u2581fractions": 49977, "\u2581Hum": 11155, "\u2581Freder": 18770, "\u2581Website": 15988, "ustain": 19643, "burn": 11000, "\u2581Cyp": 48982, "\u2581streak": 15214, "\u2581inhabitants": 17723, "\u2581Content": 14142, "\u2581Wis": 24985, "\u2581atten": 32020, "\u2581sunglasses": 36352, "idae": 31819, "\u2581scathing": 44624, "\u2581Training": 13715, "AMS": 40935, "\u2581Scot": 7231, "\u2581Online": 7568, "\u2581accumulate": 30016, "\u2581Like": 4626, "\u2581retina": 45905, "\u2581Boost": 19936, "\u2581Massive": 38857, "large": 11765, "\u2581h": 390, "\u2581simulated": 28691, "\u2581Nora": 32662, "Against": 39377, "\u2581Unsure": 38582, "\u2581volt": 13262, "\u2581vampire": 24053, "\u25812025": 32291, "\u2581Rollins": 47590, "\u2581equations": 27591, "\u2581exhaust": 12243, "\u2581Over": 3928, "\u2581Omn": 31917, "\u2581DS": 17501, "omy": 9246, "\u2581thereafter": 19648, "\u2581Rohingya": 34117, "\u2581Adapter": 43822, "\u00e2\u0122\u0130": 48362, "\u2581Knowing": 29255, "\u2581shields": 21233, "\u2581Administrator": 23099, "\u2581demonic": 33840, "\u2581document": 3289, "\u2581admired": 29483, "69": 3489, "\u2581tiss": 8916, "\u2581Nick": 8148, "estival": 6844, "\u2581divine": 11972, "\u2581Wra": 27424, "\u2581Cue": 40669, "\u2581Scenes": 49626, "\u2581recommended": 7252, "objects": 48306, "ess": 509, "\u2581amaz": 40743, "\u2581bet": 832, "\u2581convertible": 41738, "657": 37781, "su": 2486, "360": 15378, "\u2581partisan": 19767, "\u2581pirate": 25969, "\u2581chic": 47281, "\u2581superpower": 47582, "\u2581independence": 10505, "\u2581Garner": 37484, "VERS": 28985, "\u2581circ": 2599, "\u2581deeper": 9312, "\u2581SAM": 28945, "34": 2783, "\u2581resign": 11032, "sed": 36723, "\u2581flask": 43004, "bda": 43545, "\u2581Mobil": 46052, "\u2581Nirvana": 50024, "string": 8942, "living": 20051, "\u2581Sag": 25706, "\u2581GDDR": 50193, "\u2581000000": 41954, "\u2581District": 5766, "\u011a": 315, "\u2581graded": 44646, "\u2581Thailand": 17053, "\u2581File": 9321, "pletion": 24648, "\u2581decentralized": 26613, "necess": 10890, "\u2581synopsis": 48931, "\u2581(.": 20363, "\u2581unpop": 23865, "\u2581roster": 9455, "Anyway": 23896, "\u2581demon": 3323, "ikan": 49995, "\u2581bass": 12803, "Harry": 18409, "\u2581scouts": 29764, "\u2581conflic": 4284, "\u2581Sor": 15524, "described": 34970, "\u2581clicked": 28485, "\u2581Include": 40449, "\u2581photon": 48291, "\u2581WHERE": 33512, "\u2581elect": 1843, "\u2581Java": 7450, "POR": 44781, "41": 4002, "Joined": 24464, "acters": 19959, "\u00e2\u013b\u00a5": 40009, "\u00e3\u0123\u00be": 30260, "Real": 15734, "OSH": 45805, "\u00de": 255, "Ws": 46557, "TING": 49097, "\u2581Gang": 19329, "\u2581Vehicle": 21602, "\u2581adviser": 12635, "\u2581Bor": 12283, "\u2581upl": 29097, "AAA": 29798, "\u2581Mats": 30208, "\u2581Divinity": 33271, "\u2581aeros": 41477, "\u2581wifi": 43222, "\u2581Safety": 11334, "\u2581Copyright": 15170, "\u2581(<": 38256, "\u00b2\u00be": 39434, "\u2581places": 4214, "\u2581author": 1873, "iries": 18662, "\u2581Dam": 5346, "\u2581Yan": 10743, "\u2581\u00e2\u013e\u0136": 28598, "\u2581antiv": 39432, "cker": 15381, "\u2581furn": 9027, "\u2581Bed": 15686, "\u2581Hours": 19448, "\u2581Rooney": 34026, "\u2581judgments": 24296, "vity": 21420, "push": 14790, "authors": 41718, "erek": 18339, "opher": 8904, "\u2581compulsion": 48773, "\u2581Calif": 3293, "\u2581asked": 2066, "\u2581stocked": 42171, "\u2581Add": 3161, "\u2581WHAT": 25104, "\u2581\u00e2\u0136\u013e": 33569, "\u2581scan": 9468, "\u2581centers": 10500, "itative": 12565, "\u2581crow": 37694, "\u2581emergency": 6435, "ark": 769, "\u2581Academic": 31522, "\u2581shortcomings": 31832, "\u2581Wrap": 41129, "\u2581landowners": 44969, "\u2581Slay": 46910, "uf": 3147, "\u2581Cornel": 48315, "\u2581dormant": 41139, "\u2581opponents": 7792, "\u2581Ralph": 21094, "\u2581Revis": 46247, "\u2581restoring": 25747, "\u2581chambers": 23305, "\u2581owed": 21158, "md": 9233, "\u2581batteries": 13692, "\u2581associations": 15915, "\u2581spoke": 5259, "\u2581flick": 26911, "<unused_45>": 46, "\u25811934": 29401, "\u2581antibodies": 30970, "\u2581implicitly": 31922, "\u2581aval": 37542, "\u2581Finger": 39555, "\u2581throw": 3815, "OWN": 14266, "\u2581repud": 42506, "\u2581Journalists": 45745, "buff": 36974, "Matt": 13549, "\u2581Using": 8655, "Uk": 28526, "orset": 49691, "\u2581equitable": 37265, "\u2581flirt": 44210, "operator": 46717, "leigh": 42443, "\u2581Roc": 13646, "\u2581mundane": 30842, "\u2581easing": 33773, "442": 39607, "amous": 10978, "\u2581encountering": 42499, "\u2581opioid": 23140, "Allen": 40090, "crew": 42377, "\u2581swelling": 29945, "ulkan": 31364, "696": 38306, "\u2581organising": 46830, "chron": 11514, "ophys": 39766, "\u2581harmful": 13669, "razy": 6019, "\u258195": 7058, "\u2581tiger": 26342, "\u2581multic": 47469, "\u00e5\u0132": 29039, "\u2581Defeat": 41498, "\u00bf\u00bd": 4305, "ONS": 19314, "\u2581Rabb": 22603, "\u2581Bearing": 28935, "\u2581hood": 14364, "Kill": 27201, "onew": 44282, "\u2581800": 10561, "\u2581imagin": 25108, "move": 21185, "\u2581proves": 17122, "\u2581Ducks": 27723, "\u2581rapists": 38567, "ible": 957, "\u2581smoot": 32847, "\u2581union": 6542, "jpg": 9580, "uction": 8211, "otton": 11425, "\u2581desire": 6328, "\u2581Sebastian": 26291, "GV": 37195, "Jen": 44976, "houn": 47815, "\u2581hops": 29539, "\u2581Sev": 38019, "asu": 27446, "\u2581representing": 10301, "Neigh": 46546, "\u2581Discrimination": 49399, "oci": 1834, "\u2581sided": 34485, "\u2581Fans": 25065, "\u2581vot": 2094, "\u2581crafting": 21772, "\u2581mell": 33849, "\u2581contestants": 37952, "\u2581Problem": 20748, "etsk": 29616, "\u2581invasive": 27477, "Doctors": 47188, "\u2581porous": 48343, "otom": 43226, "\u2581Trail": 13170, "oglu": 49107, "\u2581Both": 5848, "\u2581overhaul": 18809, "vm": 14862, "\u2581stumble": 35275, "\u2581relics": 41071, "\u2581Delivery": 28783, "virt": 49041, "vironments": 12204, "URL": 21987, "iel": 8308, "\u2581launched": 5712, "\u2581floated": 29843, "String": 10201, "\u2581broadcast": 7126, "Show": 15408, "\u2581Eva": 32456, "\u2581cleric": 33925, "\u2581Shak": 35375, "\u2581RH": 35763, "\u2581bundles": 36445, "\u2581Ney": 34607, "uing": 4351, "Instead": 13294, "\u2581sentiments": 27031, "\u2581informs": 30476, "\u2581int": 594, "\u2581Jenny": 28538, "\u2581president": 1994, "\u2581dissent": 17974, "\u2581Brut": 30392, "1979": 33682, "\u2581Riyadh": 37337, "iques": 6469, "\u2581Pose": 37658, "Seg": 41131, "\u2581tear": 11727, "\u2581seminar": 37735, "\u2581Hai": 36977, "trace": 40647, "Swe": 40884, "\u2581impractical": 44095, "Similar": 19026, "\u2581Ender": 45423, "\u2581avert": 45448, "Book": 10583, "\u2581twins": 20446, "\u2581definite": 21993, "\u2581Petraeus": 46465, "\u2581Unicode": 34472, "\u2581imaginative": 41239, "\u2581Thing": 21662, "\u2581prizes": 21841, "\u2581Guitar": 31651, "\u2581Abyss": 16782, "violent": 24599, "\u2581additions": 19986, "\u2581NC": 8924, "\u2581behave": 17539, "\u2581Barber": 35439, "cht": 21575, "\u2581david": 22071, "\u2581intestine": 45527, "\u2581Disability": 46555, "\u2581respectable": 27822, "\u2581disabled": 10159, "umbers": 17125, "\u2581DH": 23910, "16": 1534, "\u2581suspensions": 47329, "some": 11347, "\u2581Bronze": 19562, "\u2581vacations": 48796, "\u2581diss": 6350, "UC": 9699, "file": 7854, "ics": 974, "\u2581Canaan": 47148, "puting": 48175, "\u2581loss": 3095, "\u2581Bras": 39553, "commit": 41610, "\u2581burger": 26694, "\u2581trailing": 25563, "\u2581Despite": 8046, "1900": 48205, "meyer": 48895, "\u2581blood": 3011, "record": 22206, "\u2581wavelength": 28501, "\u2581academic": 8334, "INTER": 41459, "ptroller": 45014, "ress": 702, "\u00e3\u0125\u012b\u00e3\u0125\u00a9": 19174, "\u00d0\u00bd": 22278, "not": 1763, "\u2581Door": 19922, "ingu": 6781, "\u2581\u00e5": 10364, "\u2581BIOS": 27654, "\u2581Grande": 29174, "\u2581unnatural": 34076, "Cos": 36835, "Keeping": 44916, "Role": 47546, "\u2581cemetery": 27417, "raphic": 22363, "\u2581aliases": 47318, "laws": 29418, "\u2581Identification": 38758, "\u2581Pax": 48109, "\u2581Nathaniel": 49637, "\u2581leaned": 23932, "\u2581HIGH": 34778, "ANCE": 19341, "cox": 40460, "\u2581dismissal": 25794, "\u2581disappearance": 22476, "\u2581ambassadors": 41803, "\u2581fled": 11569, "Dist": 20445, "\u2581cer": 26175, "\u2581kilometers": 18313, "\u2581hurried": 31763, "\u2581qualities": 14583, "\u2581troop": 31975, "\u2581sitcom": 37622, "\u2581servings": 43197, "ujah": 46125, "isance": 31973, "Have": 12081, "\u2581alluded": 45753, "\u2581Magical": 22395, "\u2581Thoughts": 33159, "fight": 15582, "umbnail": 20667, "Josh": 23909, "\u2581unequiv": 34024, "\u2581challenged": 12928, "ersion": 7001, "\u2581344": 43787, "Thunder": 45814, "\u2581418": 46060, "\u2581collaborating": 38253, "\u2581insurer": 38836, "\u2581distinguishes": 45583, "ent": 399, "\u2581Interest": 12134, "\u2581lobbyists": 26738, "\u2581rag": 34333, "\u2581Self": 12290, "\u2581transplant": 23420, "\u2581roar": 34633, "\u2581tack": 6432, "\u2581ven": 8811, "\u2581Airbnb": 35180, "\u2581Dynamo": 41643, "\u2581benchmarks": 31848, "\u2581cheesy": 45103, "\u2581EB": 43475, "ruct": 1457, "\u2581Chance": 11910, "\u2581Assuming": 33339, ":]": 47816, "rina": 22368, "\u2581simultaneously": 11741, "\u2581conferred": 39477, "\u2581Wesley": 28735, "\u2581cycles": 16107, "\u2581Kot": 21803, "\u2581wines": 30781, "\u2581outset": 30862, "\u2581traitor": 35832, "\u2581personal": 2715, "\u2581groove": 35197, "stant": 18898, "derived": 34732, "rolog": 40430, "entious": 43888, "\u2581technologically": 48400, "109": 14555, "backer": 50079, "arate": 30849, "\u012e": 335, "mk": 28116, "\u2581attracted": 12826, "\u2581concentrating": 37468, "\u2581Le": 1105, "150": 8729, "\u2581Munich": 22519, "\u2581logistical": 41189, "\u2581Entertainment": 11159, "img": 9701, "Pick": 31787, "\u2581Thur": 37076, "`.": 44747, "\u2581mustache": 49404, "\u2581Ori": 18055, "\u2581ben": 1989, "\u2581Baylor": 28346, "\u2581shootout": 35096, "\u2581Dir": 36303, "\u2581occupy": 22366, "\u2581Huntington": 40745, "\u2581tedious": 32561, "\u2581nurse": 15950, "\u2581conflicting": 25017, "\u2581Corvette": 49206, "\u2581Mandatory": 47119, "\u2581wast": 25158, "\u2581Part": 2243, "\u2581culminating": 43997, "cence": 43797, "\u2581Raven": 12653, "\u2581Virt": 11386, "Effect": 18711, "<unused_72>": 73, "\u2581extremes": 31183, "\u2581invite": 14138, "\u2581inability": 16713, "\u2581Refuge": 22534, "\u2581necks": 44285, "\u2581Delete": 23621, "\u2581mah": 42869, "OVER": 42084, "entimes": 43699, "\u2581medieval": 20056, "\u2581damaging": 14891, "\u2581annihil": 36673, "\u2581authenticity": 26376, "\u2581Olivier": 45775, "\u2581GT": 8064, "\u2581hel": 1033, "\u2581ant": 1986, "LB": 30602, "\u2581grabbed": 13277, "\u2581recalls": 16966, "bred": 36175, "shirts": 23332, "\u2581KDE": 36733, "\u2581Bungie": 47694, "\u2581relegation": 47753, "\u2581ACLU": 24482, "\u2581Note": 5841, "\u2581Toronto": 6687, "amorph": 37771, "\u2581damp": 21252, "ryn": 29542, "\u2581Monteneg": 50109, "pleted": 16939, "\u2581media": 2157, "\u2581corporation": 12118, "white": 11287, "\u2581force": 2801, "\u2581Toy": 11078, "\u00e7\u013d": 33667, "\u2581Schedule": 19382, "Were": 35754, "Gun": 23094, "unicip": 9563, "\u258165": 6236, "\u00c3\u0139": 13007, "\u2581organisms": 20397, "\u2581lou": 21182, "\u2581Zot": 22722, "vals": 12887, "\u2581intensity": 12346, "\u2581pertinent": 35369, "\u2581doubted": 37205, "thel": 37375, "Zip": 41830, "\u2581Anna": 11836, "loop": 26369, "\u2581HTC": 22164, "\u2581festivals": 25676, "\u2581len": 18997, "\u2581Bangl": 17992, "\u2581establishments": 33329, "De": 5106, "ikawa": 40499, "\u2581C": 428, "\u2581occupants": 35343, "\u2581Gilmore": 47270, "akers": 4080, "bed": 3178, "oured": 8268, "aky": 15593, "\u2581Sunshine": 32311, "\u2581Practices": 42235, "\u2581exchanged": 22213, "\u2581slammed": 21477, "Math": 37473, "\u2581Survivors": 46099, "\u2581deferred": 28752, "\u2581eyeing": 48948, "\u2581Cardinal": 25665, "Path": 15336, "\u00e2\u0138\u0142": 29417, "aughs": 19357, "\u2581stimulates": 49982, "iding": 2631, "\u2581Norfolk": 32235, "mercial": 15891, "lehem": 44898, "\u2581Ul": 16423, "\u2581styling": 35618, "\u00bf": 224, "aints": 6104, "\u2581butt": 8631, "\u2581defend": 4505, "\u2581Gene": 13106, "\u2581claims": 3768, "Food": 24703, "IGHTS": 34975, "\u2581sculpt": 14848, "\u2581mainland": 22880, "\u2581Guang": 37081, "\u2581classify": 36610, "ALD": 44172, "\u2581gor": 30445, "\u2581gut": 12601, "\u2581lessons": 11759, "\u2581lease": 15379, "\u2581precautions": 31421, "ratch": 36823, "Far": 21529, "Indiana": 49254, "rex": 21611, "\u2581unlocks": 23973, "\u2581talent": 7502, "Dec": 10808, "\u2581drives": 10283, "urai": 17099, "\u2581MIT": 17269, "\u2581Zeus": 20721, "\u2581cared": 20052, "\u2581Tracy": 31241, "\u2581Bulldogs": 35070, "\u25818000": 38156, "\u2581gross": 10420, "\u2581Merge": 39508, "ts": 1013, "ixed": 3067, ",,,,,,,,": 47783, "\u2581Spur": 47889, "\u2581Eggs": 40534, "ONEY": 48500, "Cam": 21802, "\u2581participates": 49668, "canon": 49984, "\u2581reaching": 9079, "\u2581Weiss": 16253, "\u2581Byte": 30690, "\u2581pulses": 37884, "\u2581subt": 13385, "\u2581Castro": 21294, "\u2581Hampshire": 14011, "\u2581Cycle": 27094, "\u2581spokesman": 6624, "inf": 10846, "sup": 37431, "Runtime": 41107, "\u2581Alchemy": 44088, "\u00cf\u0122": 46683, "famous": 45244, "\u25811923": 37373, "ITH": 10655, "wald": 21768, "\u2581edit": 4471, "\u2581Hardy": 27684, "Cart": 43577, "illus": 44443, "\u2581Atlantis": 34880, "\u2581Calories": 45234, "\u2581Casino": 32903, "\u2581Tomato": 47878, "\u2581legend": 8278, "from": 6839, "\u2581comprehens": 8670, "\u2581recip": 7551, "\u2581cryst": 17888, "\u2581observ": 3900, "tn": 34207, "\u2581Oversight": 36069, "\u2581Protocol": 20598, "\u2581portraying": 42559, "\u2581js": 44905, "athing": 27028, "_>": 49130, "abouts": 27981, "\u2581however": 2259, "iat": 5476, "\u2581nicely": 16677, "\u2581Jill": 22873, "mount": 15049, "\u2581Machina": 36882, "\u2581Dynamics": 33907, "\u2581essentially": 7087, "crim": 50187, "lim": 2576, "\\\\\\\\\\\\\\\\": 21908, "\u2581preferable": 33988, "\u2581phase": 7209, "\u2581von": 18143, "fest": 23512, "\u2581exercise": 5618, "\u2581ridic": 8918, "\u2581authorization": 19702, "\u2581Emirates": 24981, "\u2581Keller": 36100, "\u2581Confeder": 17087, "\u2581mosqu": 22364, "\u2581Cats": 29098, "\u2581guidance": 11255, "\u2581Einstein": 24673, "\u2581Special": 6194, "opic": 16704, "\u2581Han": 9631, "how": 5020, "\u2581exper": 1222, "\u2581Working": 14695, "\u2581Gateway": 30017, "\u2581tallest": 38861, "\u2581Pair": 39746, "\u2581Holden": 43494, "itus": 17607, "\u2581Glacier": 49221, "\u2581Pik": 26126, "itized": 37052, "\u2581342": 44442, "Some": 4467, "\u2581patrolling": 44619, "\u2581Jackets": 41425, "\u2581bore": 18732, "\u2581methyl": 27765, "Similarly": 28140, "\u2581auth": 6385, "\u2581liberal": 7371, "Mobile": 17167, "IDES": 42639, "\u2581prest": 16254, "\u2581tasting": 27074, "raft": 1718, "Republicans": 28556, "\u2581detectors": 40572, "\u2581Genocide": 48822, "\u2581Dylan": 21472, "\u2581Fiesta": 49940, "\u2581Americ": 1120, "\u2581Adventures": 15741, "ufficient": 15368, "\u2581backwards": 16297, "inos": 12097, "\u2581later": 1669, "Invest": 19171, "reenshots": 39652, "\u2581denote": 42786, "\u2581multiplication": 48574, "\u2581fort": 6386, "amy": 14915, "<unused_83>": 84, "aughter": 3738, "\u2581accessing": 22635, "456": 29329, "\u2581MOD": 19265, "\u2581row": 5853, "ient": 1254, "DF": 8169, "\u2581Frederick": 26214, "\u2581Cain": 28471, "gae": 25103, "seller": 33033, "\u2581Crusader": 33866, "\u2581strategically": 34336, "\u2581Blocks": 35212, "\u2581320": 21060, "inding": 6121, "\u2581Reset": 30128, "\u2581kisses": 36645, "\u2581Pen": 7608, "exit": 37124, "PR": 4906, "\u2581taught": 7918, "\u2581volume": 6216, "\u2581universal": 10213, "\u2581Disco": 19819, "\u2581indefinitely": 24492, "413": 44204, "swing": 46838, "\u2581recurring": 24925, "218": 28828, "\u2581else": 2174, "\u2581amenities": 35569, "Ap": 25290, "Thousands": 37583, "qual": 13356, "\u25811861": 45379, "orius": 48860, "soever": 15586, "oping": 15917, "\u258180": 4120, "\u2581knocked": 13743, "olitical": 13882, "\u2581clever": 14270, "\u2581ly": 22505, "\u2581Malt": 23830, "\u2581UI": 12555, "\u2581Laurie": 40912, "cester": 33288, "ivalry": 47411, "\u2581graphene": 42564, "\u2581Salad": 42807, "\u2581Donn": 48108, "\u2581G\u00c3\u00b6": 50283, "\u2581diagn": 6790, "\u2581defaults": 26336, "header": 25778, "199": 19205, "\u2581hairy": 43974, "\u2581propriet": 38191, "\u2581persistence": 30903, "umsy": 37234, "\u2581pending": 13411, "\u2581ACTIONS": 23155, "\u2581Indra": 49987, "\u2581requested": 9268, "\u2581satir": 31722, "Prov": 16047, "When": 2316, "\u2581Liberties": 34327, "\u2581MDMA": 34984, "\u2581apologizing": 47502, "USB": 27256, "\u2581Stre": 9838, "RP": 20132, "\u2581Proof": 30100, "\u2581bombshell": 48815, "Provider": 29596, "irled": 49477, "\u2581lich": 43150, "KNOWN": 44807, "\u2581recent": 2375, "\u2581Duck": 21968, "orge": 3744, "itially": 22741, "JP": 12990, "\u2581toxic": 11523, "\u2581Twin": 15069, "\u2581probably": 2293, "ANK": 15255, "\u2581Frank": 5379, "isers": 21673, "HT": 6636, "\u2581Renew": 29580, "NL": 32673, "\u2581CAL": 33391, "\u2581Worker": 35513, "\u2581Newtown": 37362, "establish": 40138, "\u2581Augusta": 46921, "\u2581Petersburg": 27152, "787": 41120, "\u2581uncontrolled": 48014, "forcement": 13543, "\u2581Dub": 10423, "Vote": 37495, "\u2581doomed": 24413, "\u2581labou": 45262, "\u2581Im": 1947, "\u00e0\u00a8": 19570, "\u2581rents": 28494, "\u2581Horses": 49223, "\u2581CJ": 27832, "\u2581Armor": 10414, "bleacher": 48076, "\u2581Northeast": 26416, "\u2581diction": 48690, "dat": 19709, "\u2581seafood": 31574, "\u2581neglect": 18086, "\"": 102, "\u2581destination": 11066, "\u2581dared": 28866, "\u2581forces": 3487, "\u2581Ger": 13674, "\u2581NJ": 18833, "\u2581adherents": 46473, "fashion": 25366, "\u2581toilet": 16247, "mmmm": 40234, "\u00d1\u0131": 40724, "\u2581railing": 47691, "pro": 1777, "\u2581Launch": 21326, "\u2581surgeon": 24024, "\u2581Hardware": 28816, "\u2581\"<": 33591, "\u2581Sau": 23268, "boss": 42921, "\u2581Go": 1615, "sequ": 3208, "\u2581coil": 25762, "\u2581dissertation": 46894, "\u2581severe": 6150, "\u2581offensive": 5960, "\u2581Democr": 2560, "\u2581become": 1817, "itions": 1857, "gram": 4647, "imens": 12218, "olation": 21518, "\u2581darkest": 36096, "\u2581McMaster": 42385, "\u2581headphone": 36870, "enza": 23775, "achy": 35687, "\u2581traumat": 38611, "hurst": 33601, "\u2581stack": 9032, "\u2581Sut": 45321, "\u2581Sponsor": 23490, "\u2581JD": 28692, "af": 1979, "\u2581ion": 22189, "324": 34017, "wit": 39390, "suggest": 47912, "nosis": 31808, "\u2581regress": 50353, "\u2581queen": 16700, "\u2581Ash": 7945, "\u2581Warrant": 33973, "\u2581wiser": 47998, "chair": 16438, "\u25811904": 43886, "\u2581Solomon": 23013, "PRES": 48397, "\u2581players": 2039, "\u2581Emer": 10421, "\u2581Ruth": 22233, "\u2581Err": 41613, "\u2581stances": 47915, "\u2581Podcast": 16137, "\u2581angle": 9949, "\u2581driveway": 33616, "\u2581indicator": 17017, "\u2581brains": 14391, "ignt": 16992, "ech": 3156, "551": 43798, "EMP": 39595, "===": 18705, "\u2581blurry": 44802, "\u2581crept": 47193, "\u2581secrets": 13242, "fram": 19399, "\u2581Gardner": 28012, "\u2581tempting": 29951, "\u2581powerfully": 48846, "\u2581Andromeda": 34643, "\u2581Constant": 20318, "query": 22867, "\u2581Delaware": 19704, "\u2581Thorn": 31523, "\u2581building": 2716, "\u2581beliefs": 9157, "protect": 35600, "obos": 49979, "155": 18843, "\u2581subjective": 19189, "\u2581pre": 763, "\u2581Eric": 7752, "\u2581transient": 32462, "during": 42223, "\u2581civilisation": 45706, "\u2581Chang": 22698, "parable": 37165, "\u2581headquartered": 48684, "emade": 21499, "\u2581unsafe": 21697, "\u2581Uganda": 30973, "\u2581thankfully": 36409, "Star": 8349, "\u2581\u00e2\u0128\u0134": 15269, "sound": 23762, "\u2581criticised": 23995, "\u2581advertised": 24045, "ward": 1005, "stem": 1028, "\u2581misleading": 15951, "\u2581speaking": 5587, "\u2581pollution": 12332, "\u2581nons": 14112, "\u2581Eugene": 24633, "\u2581psychologists": 30943, "Regarding": 39525, "\u2581spite": 15376, "\u2581Converted": 43534, "\u2581FAC": 44317, "\u2581communion": 41520, "PI": 12002, "emale": 10245, "\u2581dancer": 38720, "\u2581prints": 20943, "react": 45119, "Instruct": 44094, "\u2581Prosper": 41443, "\u2581cherish": 48404, "\u2581AFTER": 36151, "\u2581leaping": 45684, "\u2581holds": 6723, "Do": 5312, "\u2581jumped": 11788, "\u2581[": 786, "\u2581verified": 19101, "\u2581opio": 18457, "resh": 3548, "\u2581Process": 10955, "comp": 5690, "\u2581necessity": 14665, "ve": 404, "\u2581Orc": 19184, "\u2581Rapt": 21402, "\u2581Internet": 4556, "dj": 28342, "\u2581Critics": 33486, "ictions": 9379, "\u2581negatives": 42611, "\u2581PE": 18569, "\u2581grasping": 44888, "\u2581seeks": 13033, "\u2581amulet": 38436, "mans": 16322, "\u2581aspire": 43027, "ived": 1673, "undle": 31350, "\u2581RIGHT": 33722, "\u2581Stoke": 36279, "\u2581grate": 48713, "\u2581acutely": 49418, "\u2581delusions": 47557, "\u2581reverted": 50340, "\u2581Sul": 29458, "pages": 31227, "oxide": 28986, ";;": 7766, "Charl": 24554, "WR": 18665, "\u2581enhances": 32580, "Ton": 35517, "\u2581Nan": 18109, "\u2581Label": 36153, "\u2581flakes": 42431, "\u2581tendency": 13643, "\u2581Melissa": 24265, "\u2581entails": 35546, "Tang": 44010, "\u2581swaps": 44098, "\u2581adjusts": 46195, "acles": 10029, "\u2581Mountains": 21225, "\u2581contentious": 27255, "\u2581discovery": 9513, "standing": 5747, "\u2581advertisements": 25311, "\u2581Bam": 42268, "\u2581Motors": 19393, "\u2581\"\u00e2\u0122\u00a6": 29469, "\u2581repetitive": 28686, "Bind": 36281, "Cu": 46242, "snap": 45481, "\u2581flaming": 39619, "\u2581damned": 29012, "\u2581terms": 2947, "asketball": 14676, "\u2581DA": 17152, "\u2581substitutes": 44335, "\u2581SQ": 49848, "both": 16986, "\u2581nasty": 17267, "aunders": 32919, "\u2581Dot": 22976, "\u2581overcl": 40498, "\u2581Alzheimer": 22535, "\u2581vendors": 17293, "\u2581confidentiality": 32655, "\u2581overflow": 30444, "amed": 2535, "agram": 6814, "Duration": 26155, "\u2581fec": 27786, "loe": 24718, "\u2581Os": 8935, "\u2581citation": 27961, "eaturing": 31448, "\u2581tighten": 31934, "\u2581temporarily": 13514, "\u2581usable": 24385, "\u2581tits": 33890, "\u2581brunch": 50320, "\u2581pine": 20262, "\u2581inventive": 47703, "\u2581Cheng": 27793, "\u2581Bounty": 38267, "incible": 33595, "romeda": 32392, "\u2581termin": 5752, "\u2581ghost": 11006, "ca": 6989, "daily": 29569, "oria": 7762, "\u2581Sergei": 34825, "Teen": 45740, "\u2581dimensional": 38618, "\u2581Zionist": 29491, "\u2581Excellence": 42626, "\u2581eve": 28102, "\u2581km": 10672, "pling": 11448, "Bloomberg": 47797, "\u2581Wilderness": 40533, "\u2581defensively": 33453, "\u2581intercepted": 29943, "\u2581businesses": 5793, "\u2581Asset": 31534, "\u2581shredded": 37725, "pez": 46158, "=\"\"": 33252, "\u2581PLA": 45939, "\u2581prayer": 11544, "\u2581carbohydrate": 28306, "AR": 1604, "\u2581greet": 12690, "\u2581propri": 15260, "lad": 9536, "\u2581stabilized": 45046, "\u2581constituents": 22674, "Improve": 47632, "itent": 48425, "\u2581Vessel": 44835, "\u2581incrim": 49004, "\u2581veil": 30716, "Scene": 36643, "\u2581Network": 7412, "\u2581ain": 19060, "\u00e6\u0139": 33869, "\u2581Philly": 30130, "ortality": 28438, "271": 29078, "nton": 29037, "\u2581greeting": 32034, "roups": 14560, "Wh": 1300, "\u2581herd": 27739, "\u2581parity": 34484, "\u2581title": 3771, "\u2581Suff": 25075, "<paraphrasing_0>": 51, "209": 22668, "atta": 25115, "\u2581Morton": 35867, "\u2581works": 2600, "storms": 38664, "American": 7538, "\u2581Route": 19057, "encer": 12238, "black": 13525, "asser": 25030, "cheon": 40657, "grave": 41812, "oine": 42823, "absolutely": 43095, "Italy": 45102, "\u2581enhanced": 13206, "\u2581staying": 10690, "Everyone": 16291, "brate": 40905, "ighed": 12671, "\u2581lying": 9206, "GROUND": 46126, "\u2581Bok": 47491, "\u2581guiding": 26828, "auder": 29334, "\u2581hypothes": 22180, "\u00e3\u0123\u0128": 29658, "Miss": 17241, "\u2581astronomy": 37246, "\u2581Frazier": 44246, "Calling": 48694, "\u2581intr": 10014, "\u2581chim": 18306, "\u2581Asc": 29570, "essment": 21788, "\u2581uphill": 35357, "Contribut": 37247, "\u2581barracks": 37759, "\u2581statue": 15308, "\u2581tails": 30615, "\u2581divorced": 25208, "\u2581snapshot": 27580, "vous": 31323, "\u2581Policies": 42384, "These": 4812, "\u2581Handbook": 30680, "\u2581Career": 32720, "\u2581Rupert": 34416, "\u2581NEED": 36566, "\u2581valuation": 29216, "\u2581bere": 45404, "inav": 26903, "Dial": 24501, "\u2581defences": 47043, "en": 369, "\u2581Lund": 33710, "\u2581175": 19139, "Jump": 36147, "\u2581Prohibition": 43192, "lette": 21449, "\u2581Slovakia": 36940, "\u2581assured": 14034, "<length_6>": 15, "esa": 49284, "\u2581Example": 18035, "ums": 5801, "\u2581LP": 18571, "\u2581Brock": 20602, "\u2581Harvest": 26250, "\u2581Tat": 29171, "\u2581Sandra": 32565, "\u2581Tur": 3932, "\u2581allied": 22135, "Jack": 14396, "EO": 4821, "\u2581jealous": 19455, "\u2581West": 2789, "\u2581dye": 30222, "contained": 46065, "\u2581rgb": 46241, "\u2581Lunar": 32048, "everyone": 47158, "\u2581Such": 8114, "\u2581wr": 1420, "anced": 3004, "\u2581Dave": 10036, "\u00d0\u00b5": 16944, "\u258124": 2088, "\u2581Hyde": 30886, "\u2581Vanguard": 31608, "<length_1>": 10, "\u2581massive": 4959, "\u2581rejection": 18028, "\u2581Blizzard": 20307, "\u2581transparent": 13346, "IRO": 43809, "\u2581runners": 19424, "orescent": 35515, "\u2581deliberations": 45964, "\u00e7\u0136\u0141": 38056, "bos": 39666, "\u2581populist": 26916, "\u2581genesis": 48962, "\u2581initiating": 40251, "\u2581endowed": 44235, "\u2581STR": 19370, "\u2581Sub": 3935, "\u2581trucks": 14061, "iants": 17984, "\u2581brass": 20523, "\u2581validated": 31132, "mont": 8792, "\u2581fl": 882, "sub": 7367, "\u2581Beckham": 37345, "NOT": 12030, "\u2581Hanna": 43867, "\u2581phosph": 18532, "Net": 8035, "ignty": 17325, "\u2581splitting": 26122, "RT": 14282, "lev": 2869, "\u2581Messiah": 38317, "htar": 38773, "ouple": 43947, "iew": 870, "\u2581Ro": 5665, "irements": 18984, "\u2581deliberately": 14694, "\u25811908": 40518, "\u2581margins": 20342, "\u2581domest": 26127, "\u2581executive": 4741, "oshi": 13805, "\u2581DL": 23742, "\u2581loses": 14855, "\u2581ratified": 39168, "notice": 42239, "alcohol": 42243, "\u2581Finn": 15469, "\u2581commanding": 25872, "\u2581keywords": 26387, "\u2581Kaepernick": 30213, "\u2581Blackhawks": 35764, "!!!": 10286, "\u2581rename": 36366, "\u2581artists": 8013, "\u2581discreet": 38825, "\u2581Seymour": 42944, "\u2581encro": 45222, "\u2581millennial": 46552, "suff": 37434, "\u2581birthplace": 48246, "\u2581wind": 2445, "\u2581Shift": 15677, "BBC": 33934, "intensive": 38197, "\u2581methodology": 20512, "\u2581labelled": 30639, "PN": 13238, "),": 929, "Introdu": 15106, "\u2581jargon": 46569, "\u2581Himself": 31758, "\u2581batting": 23862, "ambling": 15467, "\u2581smoking": 9317, "\u2581\u00e2\u0122\u0137": 21197, "chemical": 31480, "imble": 34578, "\u2581348": 44185, "asers": 19966, "\u2581factual": 27335, "\u2581203": 27509, "Especially": 48565, "\u2581Re": 898, "\u2581superv": 29846, "\u00d8": 249, "\u2581dent": 18895, "\u2581impedance": 47573, "\u2581[(": 47628, "\u2581scanning": 22077, "\u2581rearr": 37926, "\u2581Muss": 43410, "\u2581carrots": 34498, "\u2581enh": 5982, "\"]": 9074, "Draw": 25403, "\u2581450": 18624, "\u2581Mana": 17594, "cd": 10311, "wcs": 12813, "\u2581shutter": 31269, "\u2581SELECT": 33594, "\u2581Lies": 35438, "\u2581governance": 18949, "ZE": 21312, "\u2581fertility": 21674, "Spe": 5349, "\u2581Bayern": 30784, "transfer": 39538, "election": 14401, "izzy": 40694, "\u2581skinny": 29595, "\u00e2\u0123": 46357, "\u2581Sisters": 25419, "495": 33882, "\u2581lic": 3577, "\u2581escaped": 13638, "exper": 23201, "Battery": 47107, "\u2581ideally": 30375, "\u2581Respons": 20650, "\u2581inexplicable": 49703, "Los": 29004, "\u2581Fet": 44750, "\u2581morp": 38938, "\u2581culprit": 26682, "\u2581,": 938, "\u2581416": 38259, "ienced": 26444, "\u2581Bowen": 47078, "^^": 18338, "\u2581elementary": 19924, "\u2581robes": 33071, "\u2581unicorn": 45087, "\u2581Personnel": 41724, "\u2581Sometimes": 9076, "\u2581insisted": 11290, "BUT": 47627, "\u2581ans": 9194, "\u2581Gorsuch": 38566, "\u2581anth": 26895, "\u2581romance": 19762, "\u2581beneficiaries": 28338, "ician": 6850, "MSN": 30396, "\u2581Into": 20109, "press": 8540, "\u2581Nab": 36200, "osterone": 16473, "\u2581Turn": 6857, "ards": 1472, "\u2581maintained": 9557, "\u2581reviewers": 30803, "adata": 14807, "\u2581unn": 41332, "\u2581parallel": 10831, "\u2581Pacific": 8312, "Il": 33767, "1978": 38051, "\u2581sweaty": 47700, "\u2581Witt": 38106, "Object": 10368, "orph": 13526, "\u2581Dragonbound": 18001, "\u2581emulate": 33937, "\u2581demographic": 16829, "\u2581pouch": 36695, "Gen": 13847, "\u2581eb": 36750, "\u2581Votes": 39685, "\u2581quality": 3182, "\u2581BL": 9979, "Girls": 41145, "\u2581Jedi": 16248, "\u2581Wrong": 28944, "akings": 45766, "iovascular": 19482, "ench": 24522, "\u2581healed": 28658, "\u00f3": 276, "\u2581hazard": 15935, "Gi": 33805, "\u2581would": 662, "\u2581posting": 10855, "\u2581Middle": 6147, "\u2581creatures": 8210, "\u2581bonuses": 17669, "\u2581ber": 18258, "LM": 31389, "\u2581CAM": 32522, "\u2581Celebr": 29022, "463": 38481, "\u2581Slave": 38896, "\u2581Malfoy": 39258, "\u2581Taxi": 49328, "\u2581programmed": 27503, "\u2581township": 42924, "polit": 34571, "itone": 49745, "ivic": 16583, "\u2581definition": 6871, "\u2581norm": 2694, "\u2581sympathetic": 22436, "\u2581Shares": 24098, "\u2581BD": 28124, "fif": 32142, "\u2581Export": 36573, "\u2581silver": 8566, "\u2581hyster": 24359, "Kick": 45491, "FFER": 45847, "\u2581tailored": 27672, "\u2581bids": 27938, "\u2581Guy": 13246, "exec": 18659, "\u2581Counsel": 21124, "\u2581TS": 26237, "Tweet": 47946, "jo": 7740, "\u2581technique": 8274, "\u2581neur": 12044, "\u2581inhibits": 49644, "bytes": 33762, "\u2581Groups": 27542, "ussy": 14751, "\u2581prow": 25156, "\u2581undergo": 17878, "\u2581pian": 44024, "esan": 42991, "\u2581reflections": 35167, "fter": 738, "\u2581Protest": 17902, "ecause": 3257, "\u2581orb": 15870, "\u2581Brain": 14943, "\u2581Elemental": 21441, "\u2581scandals": 28550, "\u2581decimal": 32566, "atch": 1064, "\u2581unsus": 39492, "iasco": 40126, "\u2581tending": 44782, "ults": 8477, "har": 9970, "\u00d7\u013b\u00d7": 34052, "Spr": 38555, "\u2581beta": 12260, "\u2581Valerie": 45704, "\u2581Arpaio": 46962, "\u2581Corbyn": 15774, "\u2581Yam": 14164, "politics": 34228, "charges": 35049, "\u2581Detention": 46294, "\u2581tabl": 36249, "\u2581miserable": 22545, "uzzle": 9726, "announced": 43600, "\u00e3\u0125\u00a1": 27099, "\u2581Nobody": 15759, "Lee": 24439, "monton": 19830, "\u2581Wong": 27348, "\u2581Arkham": 29587, "\u2581fix": 4360, "\u2581swing": 9729, "bilt": 34609, "\u2581coached": 31865, "\u2581Lost": 9265, "NM": 32856, "\u2581Pers": 9568, "ishment": 17963, "arch": 1099, "\u2581emergence": 22207, "\u2581succ": 17559, "\u2581anymore": 7572, "\u2581marketed": 29551, "ccoli": 34645, "\u2581Hive": 33336, "pay": 15678, "\u2581roundup": 48491, "\u2581Presbyterian": 44251, "\u2581ski": 20085, "\u2581genders": 38155, "\u2581monsters": 11064, "Sund": 20703, "Abyss": 49174, "\u00eb\u012d": 46796, "\u2581champagne": 37493, "Qaeda": 19159, "\u2581poss": 1285, "\u2581Pew": 21906, "\u2581Ala": 42783, "ocate": 13470, "\u2581paint": 7622, "\u258131": 3362, "\u2581disaster": 9437, "\u2581HERO": 46048, "\u2581century": 4390, "003": 11346, "\u2581\u00c2\u00a7": 8561, "\u2581Learn": 14466, "\u2581gasoline": 21509, "\u2581conced": 15197, "including": 8302, "\u2581\u00e2\u0136\u0124": 19522, "\u2581Rooms": 42144, "\u2581FULL": 35059, "\u2581Amtrak": 49246, "ieft": 49969, "cho": 6780, "\u2581Camera": 20533, "\u2581reflected": 12649, "\u2581Victorian": 24670, "\u2581bottle": 9395, "Tile": 35204, "\u2581undert": 10223, "rick": 5658, "Let": 5857, "larg": 15622, "\u2581contributing": 14430, "\u2581stupid": 8632, "\u2581enumer": 27157, "\u2581Isabel": 41939, "\u2581TPP": 24423, "\u2581moder": 7120, "\u2581traits": 12897, "CB": 23300, "\u2581showers": 32391, "rene": 26025, "Setup": 40887, "ideon": 42482, "647": 34082, "Clar": 48136, "\u2581ejac": 39527, "Bit": 13229, ")?": 19528, "blem": 11354, "\u2581Jackson": 6713, "\u2581omission": 35826, "\u2581analyst": 12600, "\u00e6\u0137": 46864, "\u2581Vie": 47255, "\u2581Salary": 46961, "\u2581sane": 33342, "rou": 573, "\u00d9\u012c": 22755, "\u2581RM": 29921, "\u2581Democrat": 9856, "\u2581shr": 10258, "Nusra": 39395, "\u2581eldest": 34432, "\u2581sharing": 7474, "\u2581plummeted": 44383, "Plot": 43429, "\u2581upgrading": 25586, "\u2581watts": 36517, "\u2581Garry": 45455, "abol": 28527, "\u2581ASS": 25095, "\u2581Dy": 23625, "\u2581Members": 12789, "mr": 43496, "Feed": 18433, "val": 2201, "041": 50150, "\u00e3\u0124\u00ae": 44000, "\u2581hier": 13651, "\u00e2\u0136\u0122\u00e2\u0136\u0122\u00e2\u0136\u0122\u00e2\u0136\u0122\u00e2\u0136\u0122\u00e2\u0136\u0122\u00e2\u0136\u0122\u00e2\u0136\u0122": 28643, "\u2581fel": 10857, "ENG": 26909, "\u2581clients": 7635, "\u2581infinity": 37275, "\u2581delegation": 22736, "\u2581Denver": 10757, "rived": 36308, "\u2581accessory": 28308, "\u2581totaling": 37167, "\u2581mindfulness": 35603, "\u2581nursery": 41427, "\u2581homer": 44256, "runs": 48482, "\u2581imposes": 36895, "\u2581covert": 22725, "\u2581patri": 12751, "\u2581equivalent": 7649, "\u2581conquered": 29447, "\u2581factory": 8961, "ructure": 5721, "\u2581Fruit": 22927, "Bernie": 33534, "\u2581preserved": 17333, "\u2581Unix": 33602, "\u2581orchestrated": 37829, "\u2581sprung": 39489, "Merc": 43082, "\u2581fearsome": 46157, "\u2581decisively": 48049, "\u2581happ": 1248, "\u2581Abuse": 24322, "\u2581expedition": 22918, "oat": 15174, "\u2581Bug": 15318, "cci": 35865, "\u2581perspect": 6110, "\u2581[*]": 36439, "retch": 22693, "\u2581Jem": 48300, "\u2581beers": 16901, "\u2581mud": 17593, "\u2581monk": 27367, "\u2581Mont": 5676, "\u2581Already": 27612, "\u2581Systems": 12099, "urden": 42669, "679": 37702, "\u2581corps": 16913, "\u2581brutal": 12500, "\u2581Ti": 17054, "bomb": 27758, "desktop": 41476, "\u2581microphones": 47053, "\u2581allocated": 19272, "\u2581counted": 14890, "\u2581Willis": 32849, "\u2581impe": 18617, "\u2581Bing": 21732, "aka": 8231, "Damage": 22123, "levant": 15039, "ifice": 9781, "ters": 1111, "\u2581govern": 1190, "\u2581Works": 11034, "\u2581cafe": 26826, "\u2581bags": 11769, "\u2581Similarly": 15399, "oyle": 19903, "\u2581alerted": 28709, "\u2581scouting": 27189, "xb": 30995, "\u2581debtor": 49620, "\u2581bonus": 7303, "\u2581mathematics": 19574, "\u2581relieved": 22699, "368": 27513, "\u2581intend": 14866, "\u2581yell": 29047, "\u2581condol": 35160, "\u2581Carn": 19760, "NC": 7893, "\u2581distribut": 11410, "\u2581Indones": 12739, "\u2581uninstall": 43295, "malink": 31101, ":\"": 11198, "atcher": 34835, "\u2581Tanner": 43645, "'ll": 1284, "221": 26216, "oubtedly": 16524, "ocr": 1797, "\u2581horr": 12832, "\u2581blob": 44913, "kus": 45715, "\u2581aka": 22531, "\u2581Warsaw": 33056, "verend": 37814, "\u2581joining": 9780, "\u2581ke": 986, "\u2581brands": 11495, "\u2581signaling": 22150, "\u2581Marine": 11101, "illian": 37997, "\u2581vote": 3116, "\u2581tweaked": 38405, "\u2581rallies": 22659, "\u2581inspired": 7968, "\u2581feels": 5401, "Scale": 30091, "\u2581slowing": 21706, "\u2581deleting": 34918, "ISSION": 40474, "Qaida": 41326, "\u2581Celebrity": 46390, "\u2581prism": 46576, "\u2581Beach": 8612, "useum": 6845, "threat": 20072, "\u2581Kau": 28249, "\u2581influenza": 29592, "\u2581Changed": 32169, "coord": 37753, "\u2581dan": 46179, "\u2581bottleneck": 50037, "\u2581Erica": 45288, "NA": 4636, "ple": 1255, "\u2581dragons": 20409, "ithub": 10161, "\u2581cocaine": 15245, "\u2581Persian": 22136, "\u2581Croat": 22523, "Accept": 38956, "\u2581abl": 46725, "\u2581develops": 21227, "\u2581merch": 12588, "Series": 28097, "Discussion": 34356, "\u2581astronomers": 33263, "<ans>": 64, "ix": 945, "ouses": 11471, "fried": 25621, "CLE": 30032, "schild": 35159, "\u2581combating": 41076, "\u2581CentOS": 32519, "\u2581Jews": 6872, "\u2581executions": 30733, "\u2581Recep": 45071, "[/": 13513, "\u2581Leica": 50312, "igue": 15313, "inker": 24376, "\u2581Che": 2681, "Magikarp": 41639, "\u2581awarding": 46217, "\u2581tie": 9940, "\u2581serpent": 33828, "becue": 32028, "\u2581RC": 14088, "\u2581Const": 4858, "\u2581Banana": 40159, "\u2581mig": 37112, "\u2581footsteps": 27247, "xual": 5642, "oslav": 26489, "nels": 19524, "\u2581spiritual": 8658, "Lew": 33551, "\u2581presumption": 35568, "\u2581wore": 12509, "\u2581trustee": 36983, "\u2581Wonderful": 40229, "\u2581Surviv": 19556, "\u2581Disclosure": 41907, "icio": 46542, "\u2581at": 480, "\u2581Innovation": 27825, "678": 31025, "\u2581testifying": 48053, "\u2581wiki": 22820, "\u2581Heat": 12409, "oes": 3129, "\u2581Lavrov": 44092, "\u2581divided": 9187, "().": 22547, "\u2581steered": 49401, "\u2581whose": 3126, "\u2581soul": 5949, "ounded": 6403, "\u2581limbs": 21856, "\u2581predicts": 26435, "\u2581pamph": 31562, "\u2581pane": 37319, "\u2581CB": 10179, "\u2581172": 23221, "mel": 17795, "\u2581ethnic": 9551, "\u2581Seeing": 26014, "\u2581adoptive": 49479, "\u2581sauces": 50235, "\u2581panel": 6204, "\u2581presidential": 4888, "\u2581electro": 15307, "uddle": 24601, "\u2581Assignment": 50245, "\u2581versa": 25571, "\u2581double": 4375, "\u2581Insurance": 17642, "\u2581sticking": 17375, "214": 22392, "\u2581Prop": 8873, "lest": 32813, "\u2581Coll": 7879, "\u2581vulnerabilities": 23906, "\u2581Killer": 20001, "\u2581\u00e2\u0139": 25067, "\u2581halted": 27872, "\u2581substantial": 9005, "icular": 13275, "\u2581License": 13890, "\u2581constructing": 30681, "\u2581ANG": 33379, "\u2581derived": 11045, "Street": 34457, "\u2581Summers": 36877, "\u010e": 303, "uador": 24302, "\u2581someone": 2231, "\u2581packs": 15287, "\u2581Idea": 37661, "\u2581thw": 42065, "\u2581fn": 24815, "Spanish": 43685, "\u2581ingested": 44795, "\u2581Sneak": 49576, "\u2581Hard": 7013, "\u2581Thompson": 11755, "\u2581assign": 8434, "hire": 10796, "\u2581CA": 7358, "ifier": 7584, "ettlement": 27432, "rible": 5648, "\u2581betray": 14036, "\u2581Testament": 18419, "\u2581rifles": 18570, "jong": 32529, "\u2581uncover": 23759, "\u2581outper": 33698, "\u2581Diseases": 40089, "\u2581______": 44536, "Lear": 15062, "\u2581Gr": 2003, "\u2581EL": 17953, "349": 27472, "\u2581SPD": 30729, "\u2581Noir": 37062, "\u2581Moto": 23150, "\u2581fulfillment": 32503, "\u2581Tant": 44217, "122": 18477, "\u2581intends": 19683, "\u2581prostitutes": 32260, "Steve": 19307, "\u2581quota": 32640, "sent": 34187, "\u2581gamers": 15173, "394": 34727, "\u2581zo": 40666, "Four": 15238, "\u2581congress": 8782, "\u2581Wax": 42757, "Topics": 26003, "Uber": 39119, "\u2581downwards": 44991, "\u2581mana": 13250, "\u2581St": 621, "\u2581haste": 36898, "\u2581Walt": 19036, "\u2581Entered": 22643, "Texture": 32843, "WB": 45708, "\u2581Username": 50170, "uilding": 7064, "\u2581Fraz": 37015, "\u2581Sage": 28834, "\u00e3\u0123\u012e": 35686, "\u2581hy": 2638, "\u2581FE": 18731, "\u2581TD": 13421, "\u2581routes": 12027, "\u2581Community": 8209, "\u2581monstrous": 29201, "\u2581outrage": 11717, "\u2581shipped": 14439, "\u2581Warranty": 43993, "\u2581homebrew": 45830, "\u2581molecule": 27857, "\u2581welfare": 9591, "\u2581Swamp": 29215, "440": 25745, "\u2581laundering": 27295, "\u2581CRE": 29345, "\u2581wid": 9315, "requisites": 34176, "\u2581deb": 2016, "\u2581hash": 12335, "\u2581badge": 23110, "oln": 10976, "\u2581Piet": 36649, "Anne": 43328, "\u2581Bakr": 47222, "\u2581chemically": 50067, "ichever": 22718, "\u2581TYPE": 41977, "\u2581qualified": 10718, "\u00e3\u0125\u0143": 16354, "\u2581RGB": 25329, "\u2581impartial": 32622, "\u2581synth": 33650, "\u2581suffix": 35589, "\u2581tacit": 40888, "\u2581294": 41336, "blers": 43123, "\u2581diam": 48529, "\u2581Nemesis": 49986, "\u2581Conservative": 11233, "\u2581decides": 13368, "Web": 14009, "\u2581Missile": 25451, "\u2581recruits": 23197, "\u2581applying": 11625, "\u2581Empire": 8166, "\u2581mad": 8906, "\u2581bounty": 24281, "\u2581evac": 12116, "\u2581sacred": 13727, "\u2581Kabul": 34854, "\u2581conductor": 39307, "\u00e5\u0128": 37964, "inguishable": 41827, "ibu": 33929, "\u2581recommendations": 10864, "\u2581Partners": 14306, "\u2581Rug": 19807, "\u2581Image": 7513, "\u2581bullying": 20815, "\u2581anim": 2456, "\u2581trillion": 13090, "\u2581Ric": 15969, "ako": 25597, "\"/>": 26801, "hole": 13308, "apsed": 28462, "\u2581court": 2285, "\u2581bureaucrats": 34126, "rap": 2517, "Team": 15693, "\u2581168": 23479, "\u2581persuaded": 25663, "due": 23402, "wow": 42874, "\u2581Wem": 45401, "\u2581XD": 46638, "\u2581Livingston": 47818, "\u2581mistake": 7558, "\u2581y": 432, "\u2581th": 395, "\u2581weather": 6294, "90": 3930, "\u2581anytime": 18050, "\u2581lime": 28839, "vier": 49764, "\u2581McCarthy": 18852, "Football": 37417, "\u2581Horizon": 22877, "\u2581tion": 34323, "\u2581parliamentary": 17622, "\u2581realization": 23359, "\u2581NEW": 12783, "\u2581Gott": 39552, "\u2581eject": 22290, "aeper": 28336, "\u2581demeanor": 40410, "\u2581contrary": 10489, "pson": 8531, "\u2581extraordinary": 11460, "enger": 6641, "\u2581discovered": 5172, "\u25811932": 32572, "\u2581log": 2705, "\u2581definitively": 41486, "\u2581Anglic": 42945, "strument": 43973, "1965": 45372, "\u2581Veterinary": 49029, "\u2581Significant": 49732, "\u2581fundamental": 7632, "walk": 11253, "invoke": 37770, "achus": 9624, "\u2581manipulated": 25137, "\u2581subscribing": 18513, "\u2581prescriptions": 34193, "archy": 9383, "\u2581backdrop": 26474, "\u2581bursts": 29505, "eful": 13940, "\u2581crossings": 42031, "antically": 31690, "Camp": 21212, "\u2581Throughout": 24682, "\u2581LINE": 49021, "ault": 1822, "cor": 10316, "rag": 22663, "\u2581Associate": 22770, "\u2581HIV": 10599, "\u2581CPS": 32185, "elsius": 32596, "boats": 46159, "\u2581filmmaking": 49392, "\u2581separating": 27360, "\u2581suggestive": 42890, "\u2581Buffer": 47118, "\u2581participate": 8378, "\u2581punct": 21126, "\u2581BJP": 18418, "\u2581Practice": 20040, "Members": 25442, "chy": 29759, "Sun": 16113, "\u2581moons": 31194, "DA": 5732, "\u2581tasked": 23153, "Notes": 16231, "\u2581construction": 5204, "\u2581mechan": 4063, "imm": 8709, "\u2581Diane": 26643, "aves": 3181, "\u00d0\u00bb": 30244, "layout": 39887, "\u2581diseng": 39503, "\u2581dyn": 37961, "\u2581biomass": 42685, "\u2581Achievements": 49597, "aghd": 16751, "\u2581Cit": 15893, "\u2581acclaimed": 27124, "\u2581friend": 1646, "\u2581element": 5103, "\u2581Renaissance": 29497, "seys": 27818, "\u2581guiIcon": 30312, "\u2581Palin": 33210, "ILY": 33441, "\u2581Whenever": 21427, "EY": 22449, "\u2581Trou": 22242, "Cell": 28881, "\u2581commitments": 19506, "\u2581clicking": 12365, "ciples": 6519, "\u2581Glob": 40814, "\u2581epigen": 49752, "\u2581lightsaber": 45383, "\u2581conditions": 3504, "\u2581detractors": 45743, "\u2581Trying": 31266, "zinski": 46495, "inner": 5184, "\u2581Jones": 5538, "aria": 10413, "\u2581Kickstarter": 14538, "\u2581livest": 20633, "Marg": 24529, "\u2581colony": 18916, "axy": 7070, "\u2581transports": 45346, "\u2581diarr": 30510, "\u2581unpaid": 24369, "\u2581Zhao": 29537, "audi": 31431, "Flow": 37636, "bringer": 48147, "agn": 4761, "STEM": 25462, "luent": 28317, "berg": 4001, "rique": 33966, "week": 10565, "\u2581401": 22320, "\u2581interfaces": 20415, "\u2581Jazz": 21507, "olutions": 14292, "\u2581corridors": 32908, "\u2581compelling": 13307, "\u2581Athlet": 18194, "FI": 11775, "Kind": 35955, "Blu": 38777, "\u2581nevertheless": 19133, "\u2581Ambro": 43334, "\u2581acknowledged": 10911, "\u2581July": 3002, "\u2581sar": 29109, "\u2581redist": 17779, "\u2581intervened": 35119, "\u2581pilgrimage": 36169, "Sounds": 40926, "major": 22579, "\u2581accuser": 43839, "\u2581Hubbard": 34443, "KEN": 44060, "\u2581renewal": 23002, "\u2581Hu": 11357, "\u2581elig": 7554, "iley": 9719, "\u2581approaches": 10682, "\u2581dam": 1902, "backed": 17179, "\u2581remed": 20201, "\u2581bleed": 30283, "Weapons": 41919, "\u2581Personality": 30573, "\u2581attest": 44578, "vg": 45220, "107": 16083, "\u2581Fitzgerald": 28498, "\u2581servic": 37857, "opted": 45357, "illusion": 35861, "\u2581Dead": 5643, "\u2581Honduras": 33083, "\u2581Cindy": 39163, "Brow": 32736, "lem": 10772, "\u2581wedge": 36002, "\u2581Firstly": 41140, "\u2581Tight": 44744, "\u2581406": 45540, "\u2581bis": 47558, "\u2581chirop": 47645, "ESSION": 47722, "Fun": 24730, "\u2581Blow": 26689, "\u2581lax": 37020, "\u2581oranges": 48490, "uin": 48542, "\u2581Mao": 22929, "\u2581DRAGON": 49920, "impro": 32178, "\u2581Tobias": 46776, "\u2581shudder": 50231, "\u2581Clifford": 43260, "\u2581descript": 12246, "\u2581PSP": 48752, "Strong": 33105, "0100": 39204, "\u2581Breaker": 44579, "Week": 21017, "\u2581finest": 18923, "\u2581Macron": 31463, "\u2581Technical": 20772, "\u2581nods": 34934, "\u2581bits": 10441, "\u2581flo": 5631, "\u2581spoken": 9736, "\u2581Thermal": 41691, "\u2581Repeat": 30122, "414": 37410, "Congress": 26017, "\u2581drip": 36397, "\u2581Every": 3988, "Sk": 15840, "NV": 27260, "\u2581Clip": 42613, "\u2581Mister": 43539, "\u2581statutory": 20794, "Ont": 46085, "\u2581Rates": 34965, "\u2581analog": 15176, "\u2581students": 2545, "robat": 40756, "\u2581SAS": 35617, "\u00cc\u00b6": 48970, "\u2581trees": 7251, "\u0123\u00ab": 43870, "\u2581offices": 9831, "\u2581SU": 13659, "\u2581Ye": 11710, "\u2581Ronald": 14531, "\u2581Lars": 31340, "\u2581declaring": 18785, "\u2581Bard": 25755, "\u2581nood": 25200, "\u2581Consortium": 42828, "\u2581Don": 2195, "arrass": 9288, "\u2581Pegasus": 48289, "\u2581Impact": 17778, "\u2581totals": 26411, "\u2581rubbed": 31963, "owsky": 47324, "\u2581Dodge": 26149, "\u2581unintentional": 48499, "\u2581Fellowship": 36394, "\u2581rails": 27688, "legged": 40999, "print": 4899, "\u2581\u00e1": 28154, "arantine": 38097, "winter": 40179, "\u2581Angus": 41283, "357": 27378, "\u2581cheaply": 45959, "hya": 48913, "\u2581Bashar": 24564, "\u2581lights": 7689, "\u2581voc": 12877, "shop": 24744, "Handler": 25161, "\u2581Kentucky": 11968, "ect": 579, "\u2581Scientific": 22161, "\u2581recomb": 44860, "\u2581dear": 13775, "\u2581sensory": 23427, "\u2581Volkswagen": 33092, "Lots": 43744, "\u2581Za": 44311, "\u2581albums": 16889, "\u2581heart": 2713, "\u2581dodging": 42315, "CAST": 44748, "\u2581Maurit": 46207, "vil": 3092, "\u2581Songs": 31873, "\u2581which": 644, "\u2581Ground": 13807, "\u2581cyl": 17428, "afia": 22315, "\u2581skating": 33152, "\u2581mogul": 37791, "\u2581spacious": 40995, "\u2581whipped": 30813, "\u2581repr": 41676, "\u2581Aless": 47420, "oval": 8426, "\u2581bubble": 14411, "\u2581spends": 16988, "\u2581nucleus": 30085, "\u2581Volks": 30072, "\u2581Pist": 18768, "\u2581Gram": 20260, "ox": 1241, "document": 22998, "sel": 842, "\u2581Roku": 46295, "\u2581Degree": 34587, "\u2581militias": 28296, "\u2581Blast": 20742, "\u2581thieves": 26756, "\u2581unanimously": 28456, "\u2581outsider": 30646, "\u2581PM": 3223, "\u2581brief": 4607, "\u00e3\u0124\u00a8": 23645, "\u2581indices": 36626, "\u2581write": 3652, "Class": 9588, "\u25811978": 15625, "\u2581Ups": 36050, "anty": 46199, "\u2581intellect": 7755, "\u2581med": 1218, "\u2581Wand": 22521, "\u2581graduate": 10529, "ember": 1592, "\u2581gr": 1137, "\u2581dipping": 43245, "\u2581DEFENSE": 48652, "\u2581unconditional": 42524, "\u2581crushing": 25050, "\u2581Pick": 12447, "\u2581pounding": 34020, "Fake": 49334, "\u2581Genie": 49506, "\u2581Spiral": 46828, "\u00e3\u0125\u0128": 24437, "\u2581metadata": 20251, "odynam": 24420, "iq": 25112, "\u2581propulsion": 38974, "\u2581dramas": 44073, "\u2581rivers": 18281, "\u2581Draper": 48676, "\u2581tf": 48801, "\u2581renting": 34346, "front": 8635, "Bay": 15363, "Manufact": 44546, "ification": 2750, "\u2581Japan": 2970, "\u2581Powerful": 46409, "wealth": 14399, "\u2581Mutant": 35420, "Ur": 16793, "\u2581yes": 3864, "\u2581dictatorship": 26558, "sterdam": 22607, "\u2581Sovere": 36952, "\u2581Ly": 9435, "\u2581transferring": 26241, "\u2581Flu": 34171, "\u2581Morocco": 29739, "\u2581Tiny": 20544, "\u2581caste": 30848, "\u2581Grow": 27037, "\u2581Some": 2874, "\u2581Shiite": 31546, "ampunk": 46284, "spl": 22119, "Twe": 32766, "\u2581Compact": 38005, "\u2581abbre": 28974, "\u2581Nigel": 28873, "\u2581questioned": 11535, "\u2581habitable": 49156, "\u2581Ops": 26224, "\u2581Mc": 2083, "asive": 17544, "\u2581Affairs": 10766, "\u2581Basil": 32621, "450": 17986, "\u2581possession": 7898, "\u2581gamma": 34337, "ascus": 20376, "\u2581biased": 22026, "\u2581unbeat": 36600, "then": 8625, "dan": 25705, "\u2581journeys": 35825, "Mist": 49471, "\u2581dopamine": 26353, "rolet": 33188, "available": 15283, "\u2581seasoned": 29415, "\u2581LIB": 45752, "idian": 19926, "vernment": 11456, "\u2581hilarious": 20206, "anny": 7838, "\u2581Marc": 13168, "\u2581Plasma": 31327, "retion": 12408, "\u2581winning": 5543, "etically": 16978, "\u2581gra": 8034, "Air": 16271, "\u2581Kling": 28739, "nard": 40643, "\u2581Assets": 41160, "\u2581certify": 46226, "\u2581praising": 33658, "Urban": 46768, "\u2581last": 1039, "call": 13446, "\u2581AFP": 9017, "WH": 12519, "\u2581KH": 40350, "\u2581Hash": 21160, "rehensive": 36422, "\u2581exasper": 41952, "pter": 42205, "\u2581Bud": 10471, "\u2581Menu": 21961, "\u2581camel": 41122, "GG": 11291, "\u2581trap": 12941, "\u2581touchscreen": 40066, "payers": 45874, "\u2581stren": 43172, "\u2581uniqueness": 49751, "\u2581Apr": 2859, "ATH": 12700, "\u2581replica": 30170, "\u2581Il": 13879, "469": 43048, "}}": 11810, "50": 1221, "\u2581electricity": 8845, "\u2581queues": 43460, "\u2581domination": 24389, "\u2581yielded": 26504, "\u2581tint": 34892, "\u2581signifies": 43955, "icators": 44650, "vered": 22018, "\u00e3\u0123\u012d": 27471, "613": 47613, "erves": 11285, "\u2581Yankees": 20183, "pir": 4164, "\u2581SPORTS": 47616, "\u2581DEBUG": 17060, "\u2581Learning": 18353, "Core": 14156, "ells": 19288, "idel": 6044, "\u2581jeopard": 22552, "Host": 18033, "\u2581airs": 37213, "\u2581eastern": 10284, "\u2581squirrel": 33140, "\u2581cat": 3898, "\u2581olig": 24970, "\u2581Cody": 27136, "Ing": 27783, "\u2581amd": 40072, "mode": 14272, "\u2581impro": 2116, "\u2581victims": 5071, "\u2581NVIDIA": 15228, "iona": 32893, "\u2581alleged": 4361, "Syria": 40130, "\u2581lost": 2727, "eri": 33543, "\u2581purportedly": 40992, "*:": 47127, "ogle": 2568, "\u2581alive": 6877, "\u2581keyword": 21280, "\u2581Apostles": 43432, "\u2581coincides": 47488, "\u2581minister": 5443, "TIT": 49661, "\u2581Pom": 25606, "\u2581BCC": 49678, "\u2581stri": 2439, "WAY": 27386, "\u2581purs": 8113, "\u013f": 352, "\u2581Target": 12845, "\u2581repeated": 5201, "ammed": 10674, "ivist": 31045, "ithe": 31571, "\u2581approximately": 6803, "mi": 11733, "\u2581Kim": 6603, "\u2581Sold": 12425, "alkyrie": 21417, "\u2581One": 1982, "vidia": 21845, "\u2581separatist": 40781, "\u258153": 7293, "\u2581mutation": 15249, "\u2581Lip": 24802, "\u2581speculative": 29092, "\u2581Vietnamese": 23719, "\u2581ADHD": 22923, "\u2581Gors": 35027, "Editor": 17272, "\u2581glare": 36886, "\u2581Blooming": 44127, "\u2581Kung": 44854, "\u2581abundantly": 49345, "\u2581Queen": 7643, "ipple": 18894, "\u2581Haskell": 25372, "Attempts": 48553, "\u2581Spectre": 44329, "\u2581Ap": 6050, "\u2581revis": 22225, "\u2581Palestine": 17364, "kill": 12829, "\u2581indoctr": 41302, "\u2581amended": 11513, "price": 20989, "\u2581Firm": 31724, "\u00d8\u00a7\u00d8": 34348, "\u00e2\u013b\u00a6": 41399, "\u2581\\": 3568, "OTO": 26732, "height": 17116, "colonial": 49888, "\u2581Atom": 33203, "\u2581DIS": 14055, "\u2581tolerant": 33536, "\u2581thirsty": 47225, "\u2581unbelievably": 49044, "choice": 25642, "\u2581HHS": 45598, "\u2581Jes": 4905, "\u00e2\u0122\u0136\u00e2\u0122\u0136": 4601, "\u2581Active": 14300, "ociation": 41104, "\u2581Sirius": 21896, "='": 11740, "\u2581Chao": 41125, "\u2581cast": 3451, "\u2581modify": 13197, "\u2581ambassador": 14892, "\u2581regain": 21610, "\u2581trans": 1108, "\u2581Moder": 36027, "Ali": 37994, "\u2581summers": 43386, "RH": 48688, "\u2581lovers": 20276, "forth": 25819, "\u2581ubiqu": 23962, "ocent": 29522, "ariat": 21722, "aido": 44455, "\u2581committed": 5465, "ails": 1869, "\u2581sixteen": 28014, "782": 46620, "\u2581conclude": 13897, "\u2581Fin": 4564, "Website": 33521, "Mid": 22723, "\u2581commands": 9830, "\u2581reflex": 24234, "\u2581neon": 26089, "ocative": 23567, "\u2581Hook": 18632, "charge": 10237, "\u2581emitted": 31335, "\u2581Sud": 14919, "\u2581hourly": 30261, "\u2581uncomfortable": 13017, "\u2581sparking": 41626, "\u2581NON": 44622, "iness": 1373, "assisted": 42292, "\u2581poised": 24458, "odore": 25203, "pool": 7843, "026": 46088, "\u2581mm": 8186, "udeau": 16330, "\u2581underground": 11548, "\u2581Lang": 16433, "\u2581subp": 22819, "\u2581Chemical": 24973, "\u2581snakes": 26143, "\u2581neck": 7494, "\u2581Error": 13148, "\u2581professional": 4809, "\u2581lifeless": 46544, "\u2581Smile": 48349, "croft": 36815, "\u2581municipalities": 29465, "\u2581Robbins": 44218, "\u2581Kodi": 44230, "\u2581triangle": 23051, "\u2581mold": 16037, "\u2581photographers": 26575, "\u2581Dubai": 24621, "\u2581Kens": 29119, "OOL": 31660, "\u2581galaxies": 28083, "\u2581Measure": 24392, "\u2581satirical": 40658, "\u2581!=": 14613, "\u2581faculties": 47227, "\u2581crazy": 7266, "\u2581IoT": 38589, "''''": 39216, "\u2581phenomenal": 28288, "\u2581wear": 5907, "<unused_88>": 89, "\u2581700": 13138, "\u2581Patriots": 13205, "Anti": 28896, "\u2581Flare": 39934, "\u2581Oy": 39548, "\u2581superiors": 41658, "\u2581Saturdays": 41804, "\u2581script": 4327, "\u2581studied": 9814, "scribe": 12623, "\u2581119": 15237, "\u2581passionate": 15448, "\u2581revolt": 27461, "\u2581pneum": 29732, "714": 45823, "turned": 33987, "\u2581salts": 37157, "\u2581fundamentally": 17741, "\u2581mobility": 15974, "\u2581blasp": 30560, "Legend": 21452, "Louis": 32218, "\u2581reconstruct": 31182, "\u2581Smartstocks": 32538, "\u2581Experimental": 32387, "PT": 11672, "\u2581spiders": 26221, "\u2581sergeant": 33962, "Recommend": 41349, "\u2581Brawl": 31972, "pect": 907, "fuel": 25903, "\u2581kin": 19068, "\u2581competed": 32541, "\u2581Ober": 33854, "\u2581Sparkle": 41715, "PL": 6590, "\u2581makes": 1939, "\u2581galactic": 44381, "\u2581Trayvon": 44138, "\u2581Mubarak": 46645, "\u2581Years": 13313, "cludes": 14056, "]=": 22342, "Han": 30020, "His": 6754, "\u2581IMAGES": 45426, "\u2581commentary": 14705, "\u2581journalism": 14134, "\u2581durable": 21024, "Steam": 19210, "Weapon": 27733, "itsch": 48380, "\u2581Ster": 19050, "thouse": 24032, "\u2581charts": 16008, "\u2581Sas": 23872, "\u2581Bland": 49625, "\u2581screened": 32963, "cancer": 48971, "\u2581Frenchman": 46920, "events": 31635, "\u2581sil": 3414, "\u2581fingerprint": 25439, "Link": 11381, "\u2581Wyr": 46089, "cut": 9069, "\u2581Gibraltar": 47504, "Today": 8989, "\u2581Arts": 11637, "\u2581algae": 33874, "\u2581notor": 23406, "\u2581CPR": 43021, "hidden": 30443, "\u2581never": 1340, "\u2581Mek": 42960, "\u2581astronomer": 47704, "\u2581\"%": 36622, "\u2581posted": 4582, "\u2581targeting": 10923, "laim": 20539, "\u2581skeletal": 30243, "\u2581Artists": 37700, "ranked": 28383, "\u2581Commands": 49606, "!!": 3329, "laughter": 27916, "\u2581fusion": 21849, "\u2581chiefly": 36406, "\u2581oppressive": 31084, "gorithm": 42390, "chairs": 49756, "\u2581DeVos": 39604, "\u2581dare": 16599, "\u2581Remote": 21621, "\u2581migrant": 23189, "\u2581conservatism": 34034, "\u2581hour": 1812, "\u2581conquer": 23976, "Free": 11247, "\u2581shelter": 11873, "\u2581Pure": 17230, "clusions": 11640, "\u2581contrace": 17574, "xe": 27806, "aila": 39561, "inction": 9539, "\u2581Debate": 41130, "561": 48016, "\u2581Speaker": 15032, "\u2581altercation": 38981, "venient": 48210, "Begin": 44241, "raise": 40326, "\u2581commute": 31200, "\u2581expecting": 12552, "\u2581convincing": 17202, "\u2581separ": 2981, "nat": 32454, "edi": 13841, "Index": 15833, "ggy": 20071, "awei": 38348, "\u2581size": 2647, "uting": 15230, "536": 44569, "\u2581diverse": 10185, "ii": 4279, "\u2581base": 2880, "\u2581infiltr": 21187, "\u2581Cop": 7056, "IC": 2250, "\u2581ABS": 30051, "Orig": 11711, "\u00c4\u00b1": 30203, "\u2581backers": 19018, "\u2581Common": 8171, "\u2581starred": 31737, "\u2581comfortable": 6893, "\u2581opponent": 6226, "\u2581Earth": 3769, "Fe": 14405, "\u2581migr": 15821, "\u2581packages": 10493, "\u2581reporters": 7739, "Move": 21875, "\u2581disproportion": 18818, "chemy": 26700, "\u2581Playboy": 44096, "timer": 45117, "\u2581wield": 15546, "\u2581for": 430, "\u2581Carl": 8225, "\u2581evasion": 30978, "Ring": 39788, "\u2581Jamal": 46621, "\u2581maneuver": 20287, "\u2581Lincoln": 12507, "1016": 28057, "\u2581Worse": 36956, "Tap": 45182, "Weiss": 48861, "\u2581Update": 10234, "\u2581integral": 19388, "\u2581Depending": 23692, "\u2581Immortal": 32989, "upuncture": 42324, "Enhanced": 49127, "\u2581convenience": 15708, "\u2581surgical": 22099, "\u2581EDIT": 48584, "\u2581Eval": 26540, "Introduced": 37244, "\u2581GPU": 11463, "\u2581jets": 20893, "\u2581rupt": 31681, "\u2581Lightning": 12570, "icates": 16957, "rest": 2219, "\u2581coercion": 32101, "\u2581counselors": 44236, "219": 28997, "\u2581Basics": 45985, "\u2581cruise": 20483, "Oct": 12450, "\u2581pleasing": 28891, "oops": 44961, "\u2581ARTICLE": 48402, "\u2581objections": 22055, "\u2581temple": 12606, "\u2581blasting": 37099, "\u2581unlikely": 7586, "util": 22703, "imum": 2948, "\u2581tumor": 22460, "\u2581renovation": 36112, "Again": 15417, "ishing": 4030, "\u2581connected": 5985, "\u2581MAN": 17355, "\u2581irrelevant": 18147, "Later": 18703, "\u2581sanctioned": 30673, "\u2581instructors": 33768, "ifter": 18272, "\u2581entrepreneurial": 39466, "\u2581capitals": 44691, "fourth": 49494, "\u2581ruler": 22841, "\u2581Ware": 28694, "\u2581Serpent": 30278, "\u2581biggest": 4195, "\u2581correlates": 42668, "\u2581Volunteers": 45747, "\u2581manageable": 36527, "\u2581\u00e8\u00a3\u0131": 6539, "stop": 11439, "\u2581assume": 7149, "\u2581depth": 6896, "\u2581Sect": 24163, "\u2581hurd": 22328, "cooked": 46692, "\u2581Disc": 8545, "\u2581Tyr": 14420, "issue": 22050, "\u2581loosely": 28946, "\u2581poll": 3379, "\u2581inadvertently": 29344, "ributed": 6270, "ett": 3188, "\u2581affordable": 11036, "oppable": 35729, "\u2581Achilles": 39662, "Nar": 40160, "moral": 42097, "\u2581desirable": 18864, "\u2581lush": 37509, "Moh": 38544, "\u2581warranty": 18316, "\u2581sampling": 19333, "oter": 19644, "\u2581gangs": 22662, "\u2581breathing": 12805, "\u2581exit": 8521, "\u2581peaks": 25841, "\u2581NOTICE": 28637, "seed": 28927, "\u2581Me": 2286, "\u2581Ges": 45472, "\u2581Bitcoins": 35084, "attered": 10329, "lease": 1375, "\u2581gotta": 17854, "\u2581dys": 13248, "girls": 37061, "plin": 47083, "adiq": 48788, "\u2581cursing": 49867, "context": 22967, "\u2581bott": 3106, "ihilation": 33400, "\u2581criminals": 13055, "\u2581blot": 43283, "inet": 42605, "\u00e3\u0123\u00a3": 33281, "\u2581grinned": 36369, "\u2581widened": 36506, "\u2581inqu": 8050, "\u2581menstru": 27890, "\u2581substances": 16039, "\u2581empirical": 21695, "\u2581revocation": 47376, "ALS": 23434, "\u2581lavish": 39058, "itals": 8422, "\u2581Brid": 28421, "\u2581canoe": 47535, "Mot": 47834, "\u2581notion": 9596, "\u2581balanced": 13075, "degree": 16964, "GS": 14414, "akespeare": 21047, "anish": 7216, "\u2581combinations": 17891, "inally": 3390, "rio": 27351, "\u2581inexperienced": 38104, "urized": 44897, "\u2581renegoti": 48413, "\u2581truths": 24380, "\u2581Penguin": 34525, "\u2581Club": 6390, "Email": 15434, "\u2581quests": 21460, "\u2581const": 1601, "\u2581quantities": 17895, "\u2581mornings": 31244, "\u2581Sim": 3285, "\u2581Connecticut": 14594, "\u2581hacker": 23486, "\u2581Speech": 24810, "berman": 34692, "aptop": 45108, "\u2581Highest": 41965, "\u2581glasses": 15333, "\u2581Shipping": 24248, "\u2581Madd": 21558, "\u2581cort": 12895, "\u2581Shi": 16481, "\u2581Reese": 40030, "sten": 26501, "\u2581Lexington": 39641, "\u2581Jane": 12192, "\u2581courts": 8129, "\u2581EST": 17261, "php": 10222, "\u2581(+": 11603, "Line": 14050, "ulated": 4918, "\u2581Gareth": 39998, "\u2581DISTRICT": 45158, "\u2581shrouded": 50298, "Ranked": 36814, "\u2581ANC": 46280, "atsu": 19332, "ahime": 50098, "ibrarian": 35909, "\u2581346": 44830, "mite": 33038, "riages": 16552, "\u2581wandering": 24605, "\u2581fingert": 35777, "\u2581ing": 5448, "arn": 1602, "\u2581Ratings": 36927, "\u2581scholarship": 18753, "\u2581vitri": 49051, "\u2581cram": 33171, "\u2581shaking": 17376, "\u2581bikini": 45911, "\u2581corrid": 16181, "\u2581arrivals": 34563, "\u2581sensible": 20687, "\u2581disreg": 18896, "\u2581bridges": 19533, "\u2581Cha": 20804, "Fight": 27466, "\u2581announces": 26560, "\u00e2\u013a\u0127\u00e2\u013a\u0127": 28454, "\u2581Lunch": 40615, "\u2581Literally": 48515, "\u2581Virginia": 6126, "\u2581Nit": 24383, "Forward": 39847, "\u2581U": 572, "cloud": 17822, "ection": 3314, "\u2581hunted": 34376, "inois": 9082, "\u2581subordinate": 34719, "cel": 5377, "\u2581306": 37356, "\u2581Tube": 34611, "\u2581narrated": 46291, "witch": 42349, "\u2581storylines": 44981, "\u2581liv": 17818, "\u2581multitude": 24225, "\u2581differentiated": 47644, "\u2581McC": 5209, "venture": 5489, "ipt": 10358, "onduct": 13021, "illegal": 47850, "\u2581XVI": 49191, "\u2581Builder": 35970, "abet": 8481, "\u2581operated": 12329, "\u2581spread": 4205, "\u2581where": 911, "\u2581Howard": 8543, "\u2581advocate": 12912, "ourge": 14602, "\u2581pear": 25387, "cair": 37256, "\u2581computation": 30065, "\u2581Cinema": 31636, "\u2581tyrann": 44416, "\u25811912": 34564, "\u2581caring": 18189, "\u2581Prototype": 49055, "\u2581largest": 4488, "onut": 16579, "Node": 19768, "ery": 2025, "Clearly": 30739, "\u2581McA": 40545, "EStreamFrame": 43278, "\u2581undue": 38927, "\u2581consisted": 20055, "\u2581order": 1603, "\u2581fasting": 24946, "\u2581Dude": 40729, "\u2581snowball": 46376, "\u2581Are": 4332, "culated": 49363, "\u2581transformed": 14535, "ur": 434, "inters": 20294, "\u2581gender": 5380, "\u2581428": 45164, "\u2581companion": 15286, "\u2581clothing": 9629, "\u2581reminiscent": 25061, "\u2581vacc": 7142, "\u2581colourful": 44900, "\u2581conve": 24849, "\u2581Hub": 14800, "\u2581unhappy": 19384, "akis": 27422, "Charg": 28417, "\u2581Cannabis": 28939, "\u2581vapor": 20300, "\u2581Standing": 22594, "ADE": 19367, "\u2581objected": 29912, "\u2581invading": 33928, "server": 15489, "\u2581sailed": 33936, "\u2581clandestine": 40004, "Hall": 34295, "\u2581learn": 2294, "oring": 3356, "\u2581u": 435, "!,": 28366, "\u2581Devices": 29463, "\u2581Vaults": 21415, "\u2581LeBron": 24813, "script": 12149, "\u2581sweep": 16186, "\u2581Fail": 18549, "\u2581monarch": 26565, "\u2581Velvet": 36372, "\u2581because": 881, "\u2581Others": 12792, "\u2581accompan": 10701, "\u2581tissues": 21480, "OTAL": 27611, "\u2581Li": 7556, "\u2581figur": 31575, "\u2581ISBN": 32530, "\u2581Vanderbilt": 38785, "\u2581Brush": 39947, "\u2581plans": 3453, "\u2581discontent": 39885, "Various": 40110, "\u2581environmentalists": 40687, "\u2581\u00d9\u012a": 42193, "Doc": 23680, "\u2581nin": 13563, "\u2581Cricket": 34862, "\u2581376": 44723, "\u2581daddy": 35923, "STEP": 42236, "\u2581Fnatic": 44805, "ilde": 44826, "After": 3361, "animate": 45786, "\u2581Ford": 8193, "\u2581sinful": 44959, "\u2581Glow": 46030, "\u2581bre": 1550, "\u2581Human": 5625, "\u2581stirred": 33192, "\u2581folklore": 46724, "\u2581landfill": 47813, "\u2581Jav": 49348, "\u2581Notting": 33716, "\u2581pistol": 16891, "alys": 26367, "amacare": 11825, "\u2581trump": 20098, "153": 21496, "\u2581heroic": 23624, "Fred": 30948, "quant": 41073, "bending": 49768, "\u2581Car": 1980, "\u2581formulas": 32227, "asma": 11898, "\u2581CEO": 6224, "\u2581schemes": 16647, "\u2581dip": 19651, "Human": 20591, "\u2581malf": 27851, "\u2581Utility": 34131, "isitions": 29694, "\u2581followed": 4041, "\u2581Illuminati": 42485, "\"\"": 16032, "\u2581vines": 44540, "\u2581Boxing": 36022, "\u2581Plastic": 33832, "043": 48869, "bt": 18448, "\u2581garnered": 29689, "\u2581versions": 6401, "\u2581cipher": 38113, "\u2581Polic": 37248, "\u2581kingdom": 13340, "stars": 30884, "\u2581inside": 2742, "YN": 40861, "\u2581mourn": 25823, "grading": 29348, "\u2581planned": 6128, "\u2581marriage": 4946, "\u2581eligible": 8968, "\u00e3\u0123\u00ae": 5742, "kowski": 26317, "Fact": 29155, "\u2581vile": 35043, "\u2581header": 13740, "shire": 11033, "\u2581backlog": 38881, "\u2581UC": 14518, "\u2581Netherlands": 12772, "agen": 11387, "Place": 27372, "\u2581UX": 38280, "\u2581apostles": 40860, "Writer": 34480, "\u2581Enh": 15961, "\u2581receivers": 19238, "shaw": 32933, "ications": 3837, "\u2581referral": 31514, "\u2581Pill": 19871, "\u2581psychosis": 38027, "\u2581Dell": 23718, "\u2581Talking": 33546, "\u2581ashamed": 22562, "\u00c3\u00a9t": 25226, "\u2581want": 866, "\u2581ens": 3241, "akes": 1225, "1993": 24566, "596": 45835, "\u2581such": 985, "\u2581Ban": 10375, "\u2581redu": 2128, "oters": 26109, "\u2581body": 1868, "\u2581hijab": 48593, "\u2581Be": 1456, "\u2581hardware": 6991, "\u2581Mund": 33425, "\u2581ESL": 34185, "cients": 35712, "\u2581AHL": 35398, "ilitation": 18295, "\u2581melan": 35064, "118": 16918, "685": 36079, "\u2581Sons": 28090, "\u2581marketers": 41165, "\u2581removes": 20795, "\u2581SQU": 45981, "\u2581SOME": 41771, "\u2581Forth": 50196, "\u2581DAY": 24745, "\u2581hunting": 11089, "Danny": 45579, "Untitled": 46433, "\u2581explanation": 7569, "\u2581impact": 3029, "\u2581male": 4358, "\u2581bench": 7725, "\u2581Film": 13842, "gging": 18893, "figure": 26976, "################################": 29214, "ethical": 33050, "ibaba": 37642, "\u2581Spoiler": 42059, "\u2581baseline": 14906, "\u2581levied": 43484, "\u2581legislator": 44941, "\u2581Legends": 14371, "\u2581fixed": 6070, "\u2581locate": 17377, "ellect": 6980, "\u2581cheat": 22806, "\u2581rav": 24444, "aped": 5914, "ally": 554, "idation": 24866, "pse": 7853, "River": 42305, "\u2581Brittany": 48874, "\u2581bog": 23023, "Names": 36791, "\u2581amend": 13683, "\u2581wander": 27877, "\u2581Assistant": 15387, "@#&": 48294, "\u2581Fre": 4949, "TRUMP": 42574, "\u2581educational": 9957, "QUEST": 35881, "ieved": 39692, "\u2581recognizable": 30365, "\u2581Natasha": 41976, "\u2581addresses": 9506, "etsy": 34978, "\u2581pain": 2457, "\u2581glyphosate": 38430, "\u2581Amid": 41917, "\u2581revision": 18541, "\u2581Having": 11237, "\u2581Daughter": 30433, "\u2581HTTPS": 38389, "aning": 7675, "\u2581gazing": 50335, "\u2581preliminary": 15324, "\u2581Graphics": 19941, "\u2581meter": 16531, "\u2581sphere": 16659, "\u2581501": 24656, "Bridge": 37486, "Shop": 30018, "\u2581routines": 31979, "\u2581Hound": 45001, "\u2581elim": 5788, "arent": 1681, "\u2581homophobia": 42684, "\u2581killed": 3024, "III": 10956, "\u2581LH": 49831, "EX": 6470, "Until": 18374, "600": 8155, "EMA": 27731, "\u2581Emerald": 29010, "\u2581Flavor": 26539, "\u2581booking": 25553, "ropri": 9320, "\u2581Fast": 12650, "enn": 1798, "\u2581ladies": 17409, "Usage": 28451, "\u2581condom": 33892, "\u2581Lockheed": 34339, "\u2581electing": 47014, "JO": 45107, "\u2581earthquakes": 29882, "\u2581card": 2758, "\u2581dragged": 18002, "emn": 37806, "aut": 2407, "mostly": 29572, "\u2581Marks": 27467, "\u2581shred": 21264, "\u2581tracker": 30114, "\u2581folk": 15605, ",\u00e2\u0122\u0136": 35077, "perate": 30153, "jri": 38891, "\u2581chairs": 18892, "burse": 21881, "rate": 4974, "cled": 20196, "\u2581Kra": 21654, "COM": 9959, "\u2581Vision": 19110, "\u2581Perez": 23159, "\u2581Families": 25914, "\u2581MEM": 35254, "\u2581vaccines": 18437, "idental": 35283, "432": 45432, "BALL": 45564, "\u2581Beauty": 20875, "\u2581Uncle": 23270, "Actually": 26518, "\u2581forwarding": 43549, "\u2581Libraries": 46368, "\u2581stal": 29150, "\u2581posit": 46537, "Jake": 44031, "\u2581Austral": 3239, "\u2581Rover": 36819, "ded": 9496, "\u2581tables": 8994, "peat": 18368, "\u2581tense": 20271, "\u2581mentality": 21433, "cheat": 46900, "\u2581hol": 6140, "Players": 24961, "\u2581Clubs": 49002, "\u2581circumstance": 25280, "\u00e5\u00a4\u00a7": 32115, "TG": 36091, "\u2581dentist": 38509, "\u25812016": 1685, "\u2581preferably": 29304, "append": 33396, "Does": 14022, "inance": 14250, "\u2581provincial": 15919, "\u2581leaning": 21905, "Neg": 32964, "\u2581Riding": 36133, "Recommended": 36272, "paralle": 37184, "\u2581Baal": 39749, "\u2581detachment": 43026, "\u2581Welsh": 23046, "\u2581Dumb": 43090, "combe": 49426, "\u2581Seattle": 7413, "monkey": 49673, "\u2581incred": 4979, "\u2581annoyance": 38751, "sim": 14424, "Li": 32405, "\u2581proletariat": 30545, "\u2581Mobile": 12274, "\u2581Stamina": 36483, "\u2581conservative": 6041, "oka": 17512, "\u2581Agg": 19116, "\u2581mindset": 20628, "\u2581thankful": 25636, "\u2581Wind": 3187, "\u2581Mob": 16641, "\u2581feminism": 19495, "\u2581Television": 21617, "assuming": 33036, "\u2581converter": 38495, "\u2581theatre": 21522, "accessible": 33881, "\u00c5": 230, "stan": 14293, "\u2581feeling": 4304, "\u2581abduction": 39731, ")\\": 19516, "ream": 1577, "\u2581Rider": 16515, "\u2581tires": 18021, "\u2581ineffective": 23794, "\u2581Observer": 27159, "NW": 27706, "\u2581insanely": 40949, "\u2581Alc": 43858, "\u2581blockers": 43906, ")}": 38266, "\u2581percentages": 28172, "\u2581Emil": 44373, "\u2581\u00e2\u0139\u0131": 48150, "Each": 10972, "\u2581Lev": 16143, "\u2581Beatles": 27431, "\u2581strife": 39910, "\u2581patches": 16183, "\u2581embody": 48162, "eds": 5480, "\u2581Arrow": 19509, "\u2581ro": 787, "\u2581Venezuel": 13521, "\u2581166": 26854, "\u2581Archangel": 28912, "\u2581Psychological": 30684, "\u2581biodiversity": 37690, "\u2581separate": 4654, "1969": 38492, "rounder": 45889, "\u2581relatively": 5466, "izontal": 38443, "\u2581unions": 12037, "\u2581sociology": 39726, "\u2581Soft": 8398, "\u258168": 8358, "\u2581relay": 24349, "aney": 22398, "\u2581eater": 38439, "\u2581nephew": 26402, "\u2581biological": 10786, "\u2581Drawn": 50162, "\u2581msg": 31557, "\u2581Residents": 29703, "\u2581EVE": 32457, "ween": 1076, "\u2581Was": 9021, "\u2581markers": 19837, "\u2581willfully": 46958, "\u2581UNESCO": 49473, "\u2581collects": 26710, "\u2581mount": 3918, "equ": 4954, "\u2581ignition": 37695, "shows": 49697, "\u2581accounted": 17931, "563": 46673, "oscope": 40427, "\u2581chain": 6434, "OUR": 11799, "\u2581Cost": 6547, "iche": 14335, "aching": 8204, "\u2581transmitted": 18408, "anim": 11328, "Notice": 26497, "\u2581Cao": 34614, "hetics": 25066, "\u25811914": 26934, "aux": 14745, "\u2581Maritime": 45512, "\u2581Sod": 43930, "\u2581peek": 27286, "\u2581causal": 26659, "Lead": 20552, "racted": 20317, "\u2581desert": 10427, "\u2581Cambod": 26061, "\u2581vested": 32890, "\u2581calam": 35866, "\u2581communication": 7047, "\u2581Lyn": 10451, "\u2581Save": 12894, "\u2581quantum": 14922, "\u2581stretches": 23788, "\u2581supra": 28715, "\u2581Ms": 7098, "Ah": 11011, "neutral": 29898, "\u2581arrows": 20608, "576": 37553, "icone": 28082, "\u2581Rabbi": 31908, "Lind": 43511, "senal": 10399, "By": 3987, "wash": 34771, "imity": 18954, "\u2581candidate": 4641, "\u2581TY": 24513, "inence": 18487, "\u2581aber": 42600, "\u2581ignorance": 17111, "\u2581(?,": 32944, "ored": 1951, "\u2581Origin": 19450, "\u2581courtroom": 24933, "\u2581tender": 15504, "Mom": 29353, "\u2581dazz": 32383, "\u2581isol": 7111, "\u2581congr": 19131, "\u2581\u00e6": 10646, "\u2581moderately": 32712, "Hey": 10915, "conservancy": 41316, "\u2581Ted": 11497, "\u2581WordPress": 22578, "Wire": 29552, "\u2581learning": 4774, "\u2581Duration": 23021, "\u2581neighbour": 12351, "ilitary": 18849, "zed": 8964, "\u2581transf": 13602, "\u2581Learned": 38615, "\u2581Subcommittee": 42288, "501": 33649, "\u2581obs": 10302, "ifled": 47258, "ette": 5958, "\u2581rolls": 14189, "ateg": 2498, "\u2581scr": 6141, "\u2581'": 806, "\u2581infield": 43363, "\u2581proof": 6718, "\u2581385": 44927, "\u2581batch": 15559, "IG": 3629, "remove": 29057, "omething": 8471, "\u2581Shelter": 36608, "heon": 37161, "\u2581slurs": 45082, "\u2581grasp": 13281, "\u2581anthropology": 45525, "\u2581321": 39696, "\u2581practise": 44912, "fw": 44583, "\u2581discounts": 25785, "\u2581Fenrir": 39495, "\u2581as": 456, "<unused_90>": 91, "bye": 16491, "131": 22143, "\u2581gent": 25150, "\u2581excuses": 25994, "\u2581named": 3807, "Iter": 30094, "\u2581counterfeit": 36598, "ashington": 2643, "atibility": 26002, "\u2581returned": 4605, "Metal": 36891, "\u2581calculator": 28361, "igning": 39045, "Our": 5223, "Allows": 35035, "\u2581blender": 40148, "sleep": 42933, "\u2581Intelligence": 9446, "text": 5340, "\u2581robbing": 47263, "\u2581Orn": 49460, "\u2581tre": 2155, "733": 50096, "\u2581GPIO": 50244, "clusion": 4818, "eding": 8329, "\u2581bishop": 24334, "\u2581exceptional": 15414, "\u25812048": 36218, "\u2581Under": 4799, "ANC": 21041, "\u2581Bart": 13268, "pur": 14326, "\u2581dorm": 18687, "\u2581Obviously": 16364, "\u2581ceasefire": 29818, "ONSORED": 36507, "\u2581dishes": 16860, "\u2581Taiwan": 14220, "qua": 39667, "\u2581Tap": 16981, "}.": 27523, "inst": 8726, "\u2581Download": 10573, "chrom": 28764, "cre": 7614, "\u2581airing": 31802, "Nit": 33873, "udicrous": 33885, "\u2581737": 37618, "\u2581marathon": 22437, "\u2581Iron": 8032, "\u2581Rate": 14907, "\u2581overarching": 43348, "\u2581Bombs": 44495, "\u2581Radius": 48939, "iary": 8143, "That": 2605, "\u2581Breath": 27089, "\u2581sling": 46805, "ilot": 23540, "\u2581Sequ": 24705, "\u2581VIDE": 45849, "worker": 28917, "\u2581trial": 4574, "\u2581decisions": 5471, "\u2581passer": 30387, "\u2581bigot": 25116, "\u2581diversion": 34952, "pps": 41900, "\u2581Reconstruction": 45161, "\u2581philos": 5723, "\u2581spect": 5545, "shore": 14741, "\u2581scared": 12109, "\u2581vegetables": 13802, "\u00c4\u00ab": 19063, "ernel": 8049, "\u2581utilization": 32222, "\u2581reverse": 9676, "167": 22041, "cknow": 5420, "\u2581Brigade": 26113, "\u2581Anthem": 43293, "\u2581wa": 2183, "\u2581wrink": 34967, "Chelsea": 41154, "anks": 2384, "\u2581insults": 27920, "\u2581jihadist": 32485, "infeld": 47288, "\u258147": 6399, "\u2581Broadcasting": 32351, "\u2581you": 446, "pace": 10324, "\u2581UP": 16059, "\u2581modeled": 29664, "\u2581adequate": 12973, "inges": 26893, "ified": 1532, "hu": 13516, "\u2581churches": 14523, "rd": 4473, "\u2581extrap": 36905, "\u2581Reg": 3411, "\u2581Kimber": 36116, "\u2581jacket": 15325, "\u2581contingent": 25578, "OT": 2495, "Coun": 31154, "\u2581vaping": 42207, "\u2581chanted": 42362, "cross": 19793, "\u2581overlooked": 21756, "?????-?????-": 31767, "Twenty": 34197, "government": 14581, "\u2581acidic": 43088, "\u2581Diplom": 35006, "\u2581metic": 30863, "\u2581upstream": 28818, "\u2581Kenn": 7259, "\u2581ignore": 8957, "phones": 9809, "I": 141, "taining": 7440, "feed": 12464, "\u2581contractors": 17837, "Unlike": 18622, "\u2581alarming": 24229, "REAM": 32336, "\u2581resid": 15485, "\u2581strawberries": 37074, "Marco": 37280, "\u2581franch": 7794, "mble": 11407, "ravis": 17057, "\u2581na\u00c3\u00afve": 41593, "loc": 18047, "\u2581routed": 42202, "itsu": 19932, "Commerce": 47763, "\u2581Eminem": 49529, "\u2581small": 1503, "pri": 3549, "\u2581Secure": 26808, "cigarettes": 32630, "\u2581Elves": 35273, "\u2581dotted": 38846, "\u2581prostitution": 22780, "ackers": 28975, "\u2581nuances": 42261, "\u2581flashy": 43216, "Microsoft": 16006, "171": 27293, "umann": 40163, "ising": 1811, "\u2581timing": 10677, "ruption": 6518, "td": 8772, "\u2581gradually": 11936, "\u2581trafficking": 14717, "wik": 20864, "\u2581sensing": 34345, "riel": 11820, "\u2581Scy": 32353, "ali": 7445, "\u00e3\u0123\u0126": 18667, "\u2581Increased": 26045, "\u2581Edmund": 35747, "\u2581\\(": 16893, "\u2581parameters": 10108, "\u2581sperm": 19412, "Term": 40697, "Contract": 45946, "\u2581dangling": 47371, "\u2581precincts": 47665, "Services": 31108, "\u2581Hague": 37307, "gie": 22800, "\u2581trailers": 33223, "\u2581adapters": 46464, "vere": 4220, "\u2581ster": 12605, "enth": 8045, "\u2581committing": 17323, "\u2581Man": 1970, "\u2581resolution": 6424, "Null": 35168, "izers": 11442, "oving": 5266, "Put": 11689, "nings": 23501, "CCC": 46462, "atsuki": 40164, "\u2581Iter": 40907, "\u2581urged": 11744, "adequ": 16616, "bage": 13967, "\u2581arrest": 3352, "\u2581slap": 24006, "\u2581Prometheus": 42797, "\u2581Lists": 45069, "\u0117": 312, "\u2581mark": 1418, "\u2581resistor": 45133, "moderate": 47290, "\u2581blaster": 48232, "\u2581cs": 50216, "offic": 14507, "\u2581Abandon": 41206, "\u2581Anyway": 21937, "\u2581presented": 5646, "\u2581AFC": 28088, "Bill": 17899, "\u00d0": 241, "\u2581depressed": 19196, "\u2581cha": 17893, "UF": 36921, "\u2581PsyNet": 36231, "801": 41632, "popular": 47669, "\u2581fortunately": 40056, "\u2581acknow": 5672, "\u2581redundant": 30907, "\u2581Heroes": 9997, "\u2581lyn": 31533, "\u2581Blair": 18621, "\u2581swiftly": 24095, "\u2581Roose": 18690, "\u2581phen": 6667, "\u2581politic": 31824, "essors": 23396, "\u2581syn": 6272, "351": 35374, "lifting": 30611, "\u2581halves": 37293, "\u2581restaur": 5291, "erer": 11983, "-$": 22900, "\u2581Die": 6834, "Ohio": 31375, "\u2581mishand": 49631, "\u2581stun": 8092, "opy": 11182, "\u2581adorned": 41961, "\u2581workshop": 20344, "\u2581Workers": 16948, "ulet": 25233, "630": 30106, "Basic": 26517, "\u2581Compensation": 39160, "\u2581Kardash": 42340, "aca": 22361, "uggage": 29773, "\u2581lobbying": 17603, "\u2581incredible": 8183, "\u2581directive": 22745, "\u2581Via": 33457, "\u2581Kraken": 43493, "\u2581Cohn": 45106, "ipeg": 21801, "\u2581goblins": 46321, "\u2581upstairs": 26249, "\u2581Owl": 37108, "\u2581Hilton": 31349, "\u00c3\u00a1": 6658, "Launch": 38397, "atories": 19955, "\u2581Benn": 14126, "\u258162": 8291, "\u2581identical": 10512, "\u2581inventory": 13285, "\u2581assignment": 16338, "uel": 2832, "generation": 20259, "Indust": 35949, "\u2581sender": 29889, "please": 29789, "\u2581unborn": 36273, "\u2581420": 28363, "\u2581probing": 41135, "\u2581262": 35505, "\u2581climates": 45326, "\u2581choose": 3954, "sb": 36400, "MpServer": 31866, "\u2581EVEN": 45987, "\u2581prized": 37869, "\u2581simpl": 7207, "cil": 2957, "\u2581Tenn": 9135, "\u2581Tsuk": 28936, "ores": 2951, "icon": 4850, "Phil": 18774, "\u2581Skydragon": 38351, "\u2581Gaul": 43641, "\u2581relativity": 44550, "\u2581Khalid": 44645, "Bytes": 46093, "\u2581\u00e2\u0122": 665, "\u2581grassroots": 23884, "\u2581ogre": 47757, "\u2581Solid": 15932, "military": 33732, "\u2581Pascal": 35264, "\u2581Raid": 12549, "\u2581rake": 47986, "\u2581proc": 13935, "\u2581surprising": 6553, "\u2581Persons": 32985, "\u2581Summoner": 49268, "\u2581Farn": 49331, "\u2581respond": 3132, "\u2581horizon": 17911, "\u2581Exclusive": 35752, "\u2581Governments": 40444, "\u2581dub": 10974, "\u2581Budget": 15502, "Bern": 24028, "axter": 40965, "Apart": 39283, "\u2581combatants": 40812, "Got": 30175, "features": 40991, "terness": 34798, "acho": 43804, "\u2581DOE": 47085, "endra": 48387, "puff": 49458, "ertation": 42346, "URA": 45671, "\u2581ways": 2943, "bec": 9524, "\u00e3\u0125\u00b4\u00e3\u0124\u00a1": 44545, "\u2581Older": 35628, "uper": 48669, "itchie": 48524, "ONES": 39778, "\u2581success": 2044, "\u2581Muslim": 3866, "\u2581Modi": 14738, "Liter": 43561, "\u2581antique": 38605, "nb": 46904, "east": 23417, "\u2581Currency": 20214, "osaurs": 22445, "Sep": 19218, "\u2581Kaiser": 32771, "arthy": 18371, "0010": 37288, "\u2581contractual": 38127, "\u2581Substance": 50122, "\u2581turret": 28202, "\u2581chamber": 11948, "wards": 2118, "\u2581suspects": 11927, "\u2581heap": 24676, "\u2581Canad": 2395, "\u2581friendship": 14839, "\u2581Scene": 28416, "\u2581albeit": 18345, "\u2581when": 719, "alin": 14515, "\u2581fren": 22933, "\u2581practiced": 19994, "\u2581arist": 28732, "\u2581nonex": 36297, "el": 518, "[]": 21838, "\u2581respectively": 8249, "\u2581nonexistent": 42702, "Across": 40654, "realDonaldTrump": 28125, "xia": 36173, "olith": 21547, "\u2581bucks": 24881, "\u2581syll": 27327, "VT": 36493, "\u2581yr": 42736, "\u2581MOT": 43083, "\u2581particulars": 45697, "dayName": 45493, "\u2581McKay": 38047, "Ingredients": 41323, "\u2581SpaceX": 26650, "aker": 3211, "capitalist": 50071, "\u2581Dark": 3902, "\u00e3\u0123": 2616, "\u25811895": 46526, "\u2581foreground": 36383, "\u2581Lighting": 43251, "\u2581EVER": 20599, "\u2581Kear": 43613, "\u2581fry": 33060, "\u2581depress": 41548, "ographs": 33593, "\u2581Regardless": 22351, "\u2581predominant": 45819, "\u2581Login": 23194, "Roger": 43820, "\u2581intermediary": 45294, "\u2581Christian": 4403, "\u2581legislators": 20065, "\u2581denim": 43253, "\u2581Months": 37562, "\u2581associate": 11703, "\u2581Bl": 1187, "\u2581tro": 4262, "rikes": 18546, "\u2581spinal": 26335, "Category": 27414, "ighth": 10988, "gg": 1231, "\u2581misled": 38897, "\u2581monopoly": 22137, "\u2581inhibitors": 40373, "\u2581repl": 2287, "amoto": 25485, "\u2581fabricated": 33713, "\u2581functional": 10446, "\u00e3\u0124\u00aa": 20614, "\\/\\/": 45523, "keyes": 43275, "\u2581Na": 11114, "quel": 31836, "\u2581succeeding": 34296, "\u2581Huh": 45513, "\u2581Uni": 43477, "\u2581Medic": 5887, "amaru": 46994, "\u2581iodine": 50148, "\u2581baptism": 33523, "mon": 2245, "\u2581material": 2688, "\u2581Issues": 22953, "iu": 16216, "\u2581Syracuse": 29242, "REG": 31654, "\u2581pir": 12377, "\u2581harvest": 13323, "\u2581arena": 13579, "\u2581pursuit": 14849, "\u2581vendor": 18472, "\u2581unique": 3849, "backs": 10247, "\u2581copying": 23446, "\u2581Sevent": 35835, "\u2581vir": 5810, "delete": 33779, "\u2581278": 39275, "\u2581prior": 3262, "\u2581unveiled": 18576, "rob": 22710, "ascist": 32069, "\u2581fraternity": 32575, "\u2581packaged": 25656, "\u2581cortisol": 41648, "sw": 2133, ")'": 33148, "\u2581Barnes": 21436, "\u2581struggled": 11716, "enez": 11538, "\u2581228": 29142, "\u2581expectancy": 29199, "\u2581McH": 49735, "\u2581spine": 19757, "Jun": 22497, "ver": 433, "rend": 11021, "\u00d0\u00be": 15267, "\u2581Clintons": 30335, "\u2581length": 4230, "aked": 4436, "cipl": 6772, "\u2581measured": 8731, "\u2581limb": 25136, "Int": 5418, "\u2581Growth": 19146, "ue": 619, "\u2581severely": 15153, "\u2581follower": 33141, "<unused_92>": 93, "erent": 9201, "\u2581irritation": 35265, "eric": 35727, "\u2581Lastly": 36879, "\u2581witnessed": 14024, "\u2581messing": 37342, "Joy": 41439, "\u2581headsets": 44358, "\u2581McK": 11989, "axis": 22805, "\u2581ludicrous": 35315, "\u2581meeting": 3350, "lvl": 47248, "\u2581Hoy": 49974, "\u2581Logo": 42512, "\u2581Trigger": 24694, "der": 1183, "\u2581Double": 11299, "erg": 6523, "Rachel": 44146, "45": 2332, "300": 6301, "\u2581fortune": 15908, "\u2581Dec": 4381, "BOOK": 39554, "addy": 13319, "\u2581Mental": 21336, "\u2581congest": 22892, "ILLE": 33945, "\u2581sophomore": 24606, "\u2581prem": 4300, "Write": 16695, "gi": 12498, "ivable": 22012, "\u2581bos": 37385, "\u2581Fee": 28623, "\u2581Schwar": 29827, "changed": 41086, "anders": 45171, "\u2581vou": 25312, "\u2581breakdown": 14709, "\u2581Medals": 42272, "276": 28089, "ub": 650, "\u2581AB": 9665, "\u2581Dia": 49939, "idates": 37152, "\u2581bodily": 20835, "\u2581Programs": 26280, "\u2581uncertainty": 13580, "\u2581Ley": 40763, "\u2581Tian": 20935, "std": 19383, "unc": 19625, "define": 13187, "\u2581essential": 6494, "\u2581baseball": 9384, "\u2581kinda": 17956, "\u258169": 8745, "\u2581momentarily": 41058, "\u2581Gil": 10790, "\u2581Soci": 31440, "aura": 33931, "\u2581Evans": 14023, "\u2581speculate": 26357, "dy": 9993, "\u2581sewage": 35040, "aceae": 48420, "\u2581Su": 1879, "\u2581Spencer": 16072, "\u2581squared": 44446, "\u2581overc": 25777, "\u2581Brief": 22922, "friends": 36255, "mer": 748, "\u2581filled": 6002, "gent": 6884, "\u2581fever": 17473, "\u2581Glen": 20817, "\u2581after": 807, "\u2581fabric": 9765, "PLE": 16538, "\u2581pillar": 30143, "\u2581whisky": 39602, "Creat": 16820, "\u2581Lock": 13757, "num": 22611, "\u2581hall": 7000, "\u2581imaging": 19661, "\u2581invol": 1977, "\u2581installed": 6690, "itans": 43817, "{\"": 4996, "owing": 7956, "\u2581beasts": 22031, "\u2581clothed": 45462, "\u2581GE": 22420, "\u2581parser": 30852, "\u2581NUM": 36972, "\u2581PVC": 46478, "\u2581transactions": 9046, "\u2581Gazette": 38873, "\u2581Shards": 46565, "\u2581senators": 15570, "\u2581PERSON": 46841, "\u2581NASL": 49252, "olesc": 16951, "\u2581Battalion": 29988, "\u2581atheism": 38466, "brush": 32781, "\u2581WORLD": 29665, "agg": 9561, "\u2581moistur": 41290, "\u2581};": 18184, "GROUP": 46947, "\u2581degrading": 40455, "\u2581equipment": 5213, "\u2581adapt": 6169, "\u2581monthly": 9752, "\u2581Tou": 23460, "Really": 26493, "acting": 27463, "\u2581subdiv": 46045, "\u2581num": 1098, "\u2581genuinely": 17271, "\u2581herbal": 35968, "Decl": 37936, "\u2581Powell": 19776, "CHAT": 31643, "\u2581folly": 43512, "fa": 13432, "\u2581pack": 2454, "uses": 2765, "anger": 2665, "ntil": 10226, "\u2581COR": 24030, "kk": 28848, "Perhaps": 13811, "azo": 44400, "\u2581accompanying": 19350, "bottom": 22588, "\u2581CRA": 33517, "\u2581spectator": 43994, "\u2581View": 3683, "\u2581crowded": 18113, "\u2581dealing": 7320, "\u2581shade": 18080, "ional": 1639, "\u2581Rabbit": 25599, "\u2581Rays": 36300, "\u2581auditory": 39050, "\u2581Default": 15262, "\u2581Patri": 9707, "\u2581college": 4253, "aled": 3122, "\u2581exerc": 4309, "\u2581chains": 14760, "blind": 27562, "Channel": 29340, "doctor": 35681, "\u2581trip": 5397, "music": 29066, "infect": 27917, "\u2581Completed": 33084, "mom": 32643, "\u2581Airbus": 39274, "\u2581Yor": 42554, "asm": 8698, "\u2581Server": 9753, "rating": 8922, "\u2581quite": 2508, "\u2581Zombie": 14710, "\u2581publishers": 17705, "arts": 5990, "\u2581manual": 10208, "ome": 563, "07": 3099, "\u2581embraced": 18180, "\u2581polite": 23608, "\u2581Zimmerman": 24433, "renheit": 34133, "\u2581Bonnie": 39304, "\u2581fulfill": 14759, "\u2581loose": 9256, "\u2581Males": 43505, "\u2581practitioner": 32211, "SAY": 27459, "ir": 444, "\u2581Outer": 35969, "4": 120, "inational": 26302, "\u2581onion": 21771, "\u2581Cruiser": 49820, "\u2581shores": 30064, "akra": 38105, "\u2581rem": 917, "\u25811977": 15690, "\u2581hij": 16937, "\u2581queer": 24607, "\u2581Updates": 28191, "\u2581burd": 8847, "\u2581conversation": 5374, "surprisingly": 41300, "byss": 15141, "\u2581Move": 10129, "\u2581Masquerade": 38139, "\u2581Satoshi": 40925, "\u2581unbiased": 46836, "atered": 34291, "oms": 3251, "utes": 1870, "\u2581turbo": 29393, "packs": 32478, "ging": 2768, "andal": 7743, "\u2581motors": 24800, "\u2581maintenance": 9363, "\u2581Sentinel": 26817, "ittees": 13364, "\u2581Remember": 11537, "\u2581Telephone": 44836, "\u2581FOR": 7574, "!)": 8234, "\u2581VI": 13990, "\u2581interactive": 14434, "\u2581conduct": 3290, "\u2581coincidence": 21184, "\u2581o": 368, "\u2581Abe": 22358, "\u2581DEC": 27297, "-+": 19630, "\u2581commentators": 25800, "Return": 13716, "HOME": 39170, "\u2581bins": 41802, "\u2581appease": 47417, "\u2581boundary": 18746, "\u2581throb": 48937, "vector": 31465, "\u2581manufacturer": 11655, "wan": 8250, "\u2581pudding": 44771, "\u2581platinum": 36617, "\u2581Vengeance": 37221, "\u2581Cyborg": 46215, "\u2581SOLD": 48772, "\u2581habit": 8048, "\u2581Tool": 17085, "\u2581....": 19525, "\u2581Secrets": 23662, "Lua": 36228, "ding": 12184, "\u2581);": 5720, "even": 10298, "\u2581Vu": 35917, "route": 38730, "\u2581Editing": 39984, "iddled": 34998, "\u2581Hick": 42542, "\u2581Sere": 30276, "\u2581Icar": 48663, "\u2581films": 7429, "aru": 11594, "\u2581prank": 33502, "\u2581temperament": 36241, "\u2581gatherings": 37235, "AV": 10217, "\u2581deities": 43945, "\u2581768": 46821, "November": 21260, "Paul": 12142, "\u2581awakened": 39318, "\u2581Investors": 38999, "\u2581pictures": 6087, "\u2581DES": 22297, "\u2581Spring": 8326, "\u2581repealed": 33034, "ening": 3202, "\u2581survives": 36518, "\u2581police": 1745, "\u2581microsc": 21246, "\u2581Brook": 7691, "\u2581Maryland": 10870, "parents": 23844, "\u2581commons": 36624, "\u2581sew": 34350, "\u2581343": 37391, "\u2581Gus": 37408, "sudo": 24133, "\u2581NH": 24552, "align": 31595, "exist": 38577, "been": 47537, "\u2581Template": 37451, "\u2581Vacc": 31850, "\u2581Jury": 48806, "\u2581Ep": 4652, "\u2581Transformers": 39286, "plane": 14483, "\u2581terrified": 22245, "\u2581pinnacle": 46086, "\u2581juveniles": 48761, "`": 164, "ilibrium": 24842, "\u2581session": 6347, "\u2581Gingrich": 29956, "\u2581Browne": 46861, "\u2581acts": 6630, "topia": 46676, "\u2581ss": 37887, "aul": 2619, "\u2581Ret": 5091, "leton": 10666, "\u2581jumping": 14385, "\u2581extends": 14683, "<length_19>": 28, "\u2581complicity": 48335, "\u00c3\u00bcr": 25252, "tg": 25398, "\u2581injure": 42307, "away": 8373, "Command": 21676, "Mel": 21203, "\u2581Paste": 23618, "\u2581Takeru": 48598, "\u2581fle": 5205, "\u2581Apex": 49541, "\u2581strutConnector": 50110, "\u2581Pikachu": 38856, "\u2581Rampage": 40345, "\u2581ma": 17367, "\u2581optimizing": 45881, "\u2581badges": 37684, "ceived": 6572, "TM": 16073, "AA": 3939, "\u2581module": 8366, "\u2581Philadelphia": 8958, "\u2581remarks": 10353, "\u2581star": 3592, "\u2581fragile": 21150, "\u2581Burg": 21536, "\u2581genital": 24779, "February": 21917, "\u2581reversal": 27239, "\u2581Devils": 26300, "\u2581homage": 31145, "\u2581Luxembourg": 31965, "UNE": 41985, "\u2581RIP": 45068, "irin": 47489, "\u2581Muslims": 7146, "\u2581infographic": 48134, "\u2581Krypt": 44780, "\u2581transformative": 43691, "\u2581REUTERS": 15963, "ignore": 46531, "IFE": 29251, "\u2581cheers": 34651, "\u2581enable": 7240, "\u2581aging": 14837, "\u2581Masonic": 47338, "Pages": 47899, "\u2581psychic": 25159, "\u2581sys": 25165, "\u2581matt": 24064, "ilded": 46259, "\u2581borne": 28169, "\u00c3\u013d": 34644, "\u2581nodded": 14565, "Minimum": 44147, "\u2581Techn": 5530, "\u2581emb": 4173, "\u2581Writing": 22284, "\u2581Nietzsche": 40359, "\u2581smoker": 41745, "\u2581referenced": 20818, "\u2581Room": 10197, "\u2581bras": 48130, "\u2581Gon": 35472, "Witness": 38771, "\u2581redeem": 26610, "Cath": 39682, "priority": 49437, "seen": 15999, "ria": 7597, "\u2581Reve": 31192, "raising": 32842, "\u2581uploaded": 19245, "actually": 37840, "\u2581Samuel": 17201, "MON": 27958, "\u2581Salman": 32096, "\u2581Trad": 8498, "\u2581spacing": 31151, "\u2581crore": 22407, "\u2581IBM": 19865, "\u2581Joh": 16154, "246": 27013, "atana": 43878, "\u00e5\u00a3\u00ab": 18904, "\u2581exhibitions": 48231, "\u2581Manson": 41746, "\u2581Subaru": 30572, "\u2581myriad": 24963, "\u2581Square": 9377, "opoly": 35995, "\u2581manipulative": 47960, "\u2581axes": 34298, "\u2581preach": 33051, "353": 33420, "\u2581initiated": 16963, "\u2581immune": 11001, "outheast": 14575, "\u2581Lith": 19831, "\u2581empower": 17650, "\u2581browser": 6545, "EVA": 27982, "umb": 2279, "\u2581Tud": 48357, "\u2581Derek": 20994, "Eric": 25105, "\u2581Aph": 47168, "\u2581simple": 2930, "iden": 14130, "\u2581Incarnation": 47982, "\u2581accountable": 16790, "\u2581Hover": 38553, "verage": 1958, "\u2581Imagine": 18551, "\u2581chassis": 24688, "\u2581Extra": 17322, "Medium": 31306, "ogens": 26713, "\u2581My": 2112, "\u2581Cot": 42367, "\u2581comp": 653, "\u2581ultra": 14865, "aundering": 23597, "ologue": 39896, "\u2581Deliver": 43472, "mort": 30272, "\u2581Anyone": 17563, "false": 9663, "\u2581diffusion": 44359, "\u2581Arizona": 8044, "\u2581hello": 23849, "\u2581lobster": 43758, "\u2581Load": 8879, "\u2581architecture": 11060, "\u2581battle": 3445, "\u2581chairman": 9001, "\u2581losses": 9190, "\u2581paramed": 34682, "\u2581bananas": 35585, "\u2581Innocent": 44879, "\u2581fog": 19659, "activ": 15892, "#$#$": 34307, "\u2581Jew": 3471, "Putin": 17161, "\u2581Lily": 20138, "\u2581Lex": 17311, "\u2581algorithm": 11963, "isphere": 22934, "\u2581Estonia": 31013, "zers": 47132, "\u2581Hyundai": 48063, "\u2581blade": 11966, "\u2581Pyth": 48758, "\u2581happy": 3873, "ack": 542, "\u2581weapons": 3878, "words": 10980, "acs": 16537, "\u2581Giant": 17485, "\u2581Hidden": 20559, "\u2581flame": 16607, "\u2581notebook": 21023, "\u2581storing": 23170, "bler": 43501, "\u2581stamp": 18078, "------------------------": 22470, "\u2581gastrointestinal": 40988, "Wind": 8832, "\u2581Gand": 17828, "Member": 27709, "conference": 41225, "Hunt": 47764, "\u2581Identified": 24618, "\u2581Vog": 35522, "\u2581legitim": 18363, "\u2581Ni": 11657, "\u2581physic": 22371, "\u2581personnel": 8314, "\u2581conclusive": 39790, "agi": 18114, "lund": 37626, "greSQL": 47802, "\u2581Bat": 6678, "\u2581Clash": 33218, "\u2581dumped": 24206, "phone": 4963, "\u2581Baird": 48604, "ument": 1814, "Japan": 16605, "hip": 1157, "\u2581exams": 26521, "ulty": 10773, "\u2581glam": 27341, "\u2581Switch": 14746, "\u2581Thomson": 32526, "eteen": 34127, "Kids": 40330, "\u2581!": 5246, "athered": 8739, "\u2581hygiene": 33407, "\u2581sustainability": 26910, "\u2581Solo": 20385, "\u2581OF": 4064, "\u2581practition": 17730, "role": 18191, "\u2581MRI": 30379, "atial": 35062, "\u2581Ripple": 40404, "olog": 1029, "Maps": 47111, "\u2581posterior": 34420, "\u2581Roses": 41345, "FILE": 25765, "\u2581shortest": 35682, "\u2581condem": 8447, "Improved": 35554, "\u2581dissatisf": 27671, "../": 40821, "\u2581Sanctuary": 27137, "\u2581eagerly": 30231, "<sep_1>": 4, "ever": 1065, "42": 3783, "\u2581intentions": 15054, "\u2581Surveillance": 34919, "\u2581Officials": 28345, "\u2581Mum": 38468, "\u2581printer": 20733, "\u2581look": 905, "\u2581affirmed": 31137, "\u2581removal": 10035, "joining": 40145, "\u2581lodge": 35463, "135": 17160, "\u2581adult": 4145, "otional": 25554, "\u2581reality": 4051, "\u2581designate": 32882, "\u2581retail": 6409, "\u2581Below": 10484, "\u2581stress": 5604, "\u2581logo": 11213, "\u25811944": 17095, "\u2581treaties": 30835, "\u2581techn": 1680, "\u2581campaigners": 36034, "\u2581Bai": 40851, "\u2581cleaned": 20851, "\u2581unto": 12823, "\u2581Conf": 7427, "\u2581timely": 19477, "peak": 36830, "\u2581dysfunction": 19428, "amate": 36855, "\u2581believable": 41733, "\u2581Ka": 11712, "\u2581gardening": 46173, "\u2581gathered": 9373, "atron": 23585, "\u25811945": 15862, "\u2581patriotism": 37095, "pic": 16665, "\u2581euph": 40482, "\u2581Alien": 17711, "prem": 31706, "\u2581Downloads": 50194, "overed": 2658, "\u2581stable": 8346, "\u2581supp": 903, "emed": 9107, "Exp": 16971, "\u2581Corp": 11522, "\u2581Pablo": 33286, "\u2581repet": 46253, "dos": 37528, "ARDS": 48395, "\u00d5": 246, "rossover": 24055, "\u2581stereotyp": 29349, "ollower": 47131, "\u2581flared": 50118, "Under": 9304, "\u2581waivers": 35734, "borough": 18014, "\u2581contempl": 19478, "fu": 21043, "\u2581optimal": 16687, "\u2581strikes": 9057, "\u2581CHAR": 28622, "\u2581suited": 16763, "\u2581Fal": 9697, "zen": 4902, "\u2581Explicit": 11985, "\u2581****": 26099, "prise": 8020, "\u2581Strategies": 41097, "\u2581waterfall": 42568, "\u2581unsc": 28695, "conv": 43047, "\u2581TRUMP": 43054, "\u2581optionally": 43077, "\u2581analogue": 45405, "head": 2357, "\u2581Leaves": 46698, "\u2581encounter": 8892, "ELL": 23405, "\u2581disag": 8070, "\u2581bec": 740, "\u2581threads": 14491, "\u2581grants": 11556, "\u2581crypt": 8295, "\u2581spy": 14098, "\u00e2\u0122\u00a6]": 21577, "\u2581.\"": 22236, "Journal": 25397, "\u2581Enlight": 30665, "UGC": 31280, "\u2581Oliver": 15517, "GW": 33292, "bill": 35647, "\u2581activates": 36307, "casts": 41025, ".\u00e3\u0122\u012f": 43836, "\u2581dispel": 45730, "\u2581Garfield": 47319, "\u2581Eg": 36487, "\u2581violet": 45826, "\u2581bag": 6232, "\u2581sorely": 50204, "\u2581filters": 16729, "hz": 32280, "\u2581provocation": 41310, "\u2581legendary": 13374, "\u2581stakes": 21248, "\u2581pots": 32296, "\u2581alert": 8096, "urat": 40029, "Currently": 21428, "\u2581whipping": 44738, "\u2581enlight": 19229, "\u2581Ass": 2296, "\u2581rationality": 45728, "\u2581Fund": 7658, "\u2581tuning": 24650, "\u2581universally": 26309, "\u2581Gent": 27492, "\u2581Cheap": 41188, "mail": 4630, "DL": 19361, "ueller": 16567, "\u2581neutrality": 20824, "Need": 23138, "\u2581banished": 44027, "\u2581Races": 45235, "ists": 1124, "\u2581snap": 11596, "\u2581Oman": 41883, "\u2581Unloaded": 26027, "\\\",": 34708, "\u2581tale": 12939, "\u2581Boo": 21559, "minded": 14644, "DC": 9798, "\u2581Database": 24148, "\u2581Stupid": 43031, "\u2581respect": 2562, "\u2581bully": 27511, "\u2581validation": 21302, "\u2581estimated": 6209, "WW": 18048, "\u2581injuries": 6922, "\u2581prisons": 19325, "\u2581yen": 28909, "\u2581commercials": 30604, "uart": 20087, "\u2581Mercer": 38247, "\u2581Almost": 16800, "\u2581elastic": 27569, "\u2581Napoleon": 28384, "Break": 31838, "\u2581ruby": 43607, "\u2581Mash": 30971, "537": 46197, "\u00ff": 288, "\u2581aggregation": 46601, "catch": 40299, "\u2581alas": 47257, "ezvous": 50164, "\u2581dy": 20369, "\u2581prophecy": 28423, "\u2581circumcision": 25614, "\u2581Willie": 28724, "OS": 2741, "\u2581Bosnia": 34393, "\u2581resigned": 16643, "\u2581stadium": 10409, "\u2581makeup": 16130, "\u2581shortened": 34565, "\u2581manages": 15415, "\u2581Keynes": 33632, "\u2581fam": 1246, "\u2581Lug": 31642, "\u2581CNBC": 34982, "\u2581crabs": 49273, "attering": 16576, "wig": 28134, "\u2581notwithstanding": 30052, "\u2581taxed": 31176, "ause": 783, "\u2581thing": 1618, "ser": 2756, "\u2581drone": 12271, "\u2581cried": 16997, "\u2581precedent": 19820, "Kh": 33256, "\u2581hormonal": 37057, "\u2581applauded": 39012, "\u2581Fey": 39876, "117": 17758, "nob": 35053, "\u2581Karl": 15516, "\u2581Vancouver": 11031, "\u2581newborn": 23957, "usercontent": 43768, "\u2581Inquisitor": 46842, "\u2581Travels": 49000, "\u2581vibe": 27527, "\u2581sacrament": 49182, "\u2581Penn": 6696, "\u2581Kiev": 22862, "\u2581Natural": 12169, "enei": 46110, "aja": 27893, "\u2581Wouldn": 43149, "\u2581Abu": 13199, "\u2581appearance": 5686, "\u2581Judge": 9075, "\u2581manufact": 4112, "\u2581abuse": 5177, "iots": 16329, "\u2581Recipes": 44330, "\u2581slid": 27904, "\u2581Suarez": 40093, "reatment": 21832, "\u2581Participants": 26223, "\u2581Naz": 12920, "\u2581After": 2394, "fits": 21114, "igator": 23924, "\u2581masc": 24078, "ocrats": 22089, "\u2581buys": 24880, "\u2581peppers": 31905, "\u2581ele": 9867, "\u2581leveled": 33398, "ivably": 48095, "\u2581Idlib": 33355, "\u2581Acc": 6467, "\u2581Arlington": 30480, "\u2581retard": 43065, "\u2581Bord": 48436, "\u2581print": 3702, "\u2581freezes": 44490, "Hor": 28092, "\u2581crippled": 39062, "\u2581Infinite": 22481, "\u2581GCC": 42463, "119": 16416, "\u2581land": 2057, "alias": 26112, "\u2581conclud": 5493, "\u2581site": 2625, "\u2581Baltic": 32983, "\u2581palp": 38992, "night": 3948, "\u2581Amir": 44032, "\u2581counterpart": 11384, "\u2581Unlike": 12202, "188": 20457, "bats": 50300, "\u2581optimum": 39576, "\u2581hypothesized": 43815, "\u2581Hercules": 32896, "\u2581interacted": 49337, "\u2581Improve": 20681, "Officers": 34160, "\u2581ponder": 37476, "\u2581RAID": 37551, "Jul": 17081, "\u2581Buck": 13553, "\u2581Cohen": 17255, "121": 19345, "\u2581Packs": 46881, "\u2581Rud": 17522, "\u2581Kara": 34957, "319": 35276, "Pass": 14579, "\u2581Invalid": 17766, "pants": 38996, "so": 669, "\u2581Gal": 5128, "\u2581Mediterranean": 19618, "915": 40349, "\u2581Vim": 36746, "\u2581Ari": 6170, "prov": 15335, "types": 19300, "\u2581humanitarian": 15807, "lav": 18910, "\u25811956": 25291, "\u2581mapped": 27762, "\u2581attends": 32844, "\u2581Colts": 20565, "\u2581Butterfly": 39209, "\u2581Soldier": 20205, "\u2581Miy": 29565, "\u2581\u00e2\u013f": 43175, "\u2581BRA": 40048, "\u2581bureaucracy": 25351, "\u2581warehouses": 43776, "\u2581naughty": 45229, "Bird": 42663, "dimension": 46257, "\u2581Ads": 47543, "\u2581Hem": 15718, "004": 23015, "\u2581NBA": 7504, "\u2581exclaim": 48876, "\u2581stepping": 17514, "\u00e2\u0122\u00a6\u00e2\u0122\u00a6\u00e2\u0122\u00a6\u00e2\u0122\u00a6\u00e2\u0122\u00a6\u00e2\u0122\u00a6\u00e2\u0122\u00a6\u00e2\u0122\u00a6": 29247, "\u2581heterosexual": 24127, "\u2581scriptures": 39883, "\u2581137": 21744, "aces": 2215, "rowd": 4087, "stood": 6602, "\u2581mechanisms": 11802, "lin": 2916, "Ray": 19692, "Question": 24462, "\u2581instinct": 13412, "\u2581legitimacy": 22827, "emer": 24778, "\u2581bishops": 27639, "\u2581civ": 36418, "ingham": 25976, "\u2581permission": 7271, "\u2581voiced": 21447, "Parts": 42771, "210": 21637, "VII": 45630, "\u2581wired": 28318, "\u2581Raptors": 30937, "\u2581endogenous": 47165, "Click": 8265, "Asked": 19033, "best": 13567, "KT": 42277, "\u2581Iw": 44417, "\u2581stereotypical": 46213, "usky": 42532, "\u2581available": 1796, "\u2581wounded": 10758, "Map": 14013, "maxwell": 29148, "\u2581Lilly": 35235, "\u2581The": 484, "\u2581Milk": 24897, "\u2581allerg": 31076, "cano": 35591, "GGGGGGGG": 40516, "\u2581ASIC": 48546, "\u2581Consider": 12743, "OX": 48733, "\u2581Moroccan": 49424, "Built": 39683, "\u2581intervening": 37395, ")+": 47863, "\u2581[]": 17736, "\u2581MA": 8880, "111": 16344, "\u2581sequencing": 32942, "\u2581educate": 20872, "ominated": 50352, "\u2581Focus": 17162, "\u2581Esther": 47634, "\u2581Kit": 10998, "ometric": 17097, "\u2581handed": 10259, "\u25812017": 2278, "\u2581opening": 4857, "uba": 22114, "\u2581Cream": 20080, "Hot": 21453, "\u2581escalation": 29560, "uala": 42045, "neau": 46634, "\u2581neocons": 43631, "\u2581vitamins": 29192, "auldron": 45738, "\u2581Pound": 40953, "\u2581admitting": 22789, "\u2581blockade": 31075, "\u2581Directorate": 44538, "ocalyptic": 28440, "ney": 1782, "kinson": 26131, "\u2581journey": 7103, "\u2581indict": 16157, "atching": 19876, "\u2581under": 840, "\u2581these": 878, "\u2581Really": 16224, "\u2581waving": 25950, "\u2581discont": 16242, "Ox": 38309, "\u2581pains": 25086, "\u2581Milan": 21675, "\u2581Statue": 43431, "CONCLUS": 47643, "\u2581Purg": 49994, "======": 50256, "\u2581hitter": 30959, "andel": 33235, "\u2581Kerry": 16082, "mounted": 29829, "\u2581Contact": 14140, "assemb": 34556, "\u2581honoured": 45971, "fighters": 17215, "\u2581essays": 27227, "\u2581struggles": 12867, "heim": 9197, "\u2581Matthews": 22334, "ummy": 13614, "nexpected": 42173, "Files": 25977, "Monster": 40973, "\u2581Mysterious": 41082, "steam": 21566, "Sh": 2585, "\u2581Son": 6396, "idays": 13943, "\u2581Anaheim": 31201, "\u2581favourites": 39590, "\u2581Hubble": 40556, "\u2581Slug": 41736, "\u2581McMahon": 34085, "\".": 2012, "\u2581choke": 28605, "\u25811995": 8836, "eus": 27751, "\u2581Etsy": 39010, "\u2581visualization": 32805, "\u2581translucent": 45424, "h": 172, "37": 2819, "bodied": 45291, "inals": 6998, "advant": 13562, "\u2581Gou": 46632, "Look": 8668, "\u2581unison": 49519, "\u2581amendments": 17936, "\u2581folding": 30010, "punk": 30455, "\u2581750": 19784, "\u2581Trouble": 34280, "aiman": 47941, "aks": 4831, "AIR": 42250, "\u2581org": 8846, "\u2581occasional": 12310, "\u2581helicop": 11828, "weather": 23664, "\u2581mo": 7042, "tec": 36382, "Catholic": 49020, "arant": 4842, "\u2581local": 2058, "act": 630, "\u2581measles": 30963, "\u2581demolished": 33460, "\u2581crew": 5563, "hest": 3735, "\u2581weekend": 5142, "\u2581bear": 6943, "powered": 12394, "\u2581VAL": 26274, "itarian": 8454, "\u2581Griffith": 30570, "\u2581JFK": 35317, "\u2581Otherwise": 15424, "\u2581lag": 19571, "\u2581pairing": 27457, "\u2581lieutenant": 30370, "otle": 23657, "\u2581Influence": 36049, "\u2581reinvent": 36709, "atten": 41870, "endum": 43856, "\u2581number": 1372, "\u2581cod": 14974, "aming": 3824, "\u2581acknowledges": 23578, "Lu": 25697, "\u2581tunes": 31897, "\u2581importantly": 11104, "\u2581Differences": 42038, "\u2581harming": 37972, "Decre": 43299, "\u2581mentors": 44792, "\u2581express": 5012, "repe": 46057, "\u2581Aly": 47636, "Item": 7550, "\u2581Emerging": 48398, "Condition": 48463, "\u2581climax": 30133, "\u2581banned": 9402, "\u2581studios": 20848, "\u2581dungeons": 33163, "\u2581Modest": 42911, "intent": 48637, "\u2581gn": 20068, "claimer": 17212, "\u2581Harrison": 17382, "\u2581Tables": 33321, "\u2581Fountain": 41014, "wind": 8073, "\u2581prof": 1635, "\u2581ocean": 9252, "Obviously": 20771, "\u2581MU": 25209, "\u2581Crown": 12324, "\u2581Dragon": 2952, "ocking": 8730, "\u2581Hate": 28435, "\u2581falls": 9054, "\u2581Alabama": 9367, "\u2581justify": 12152, "heavy": 23802, "\u2581honesty": 24446, "'-": 29102, "\u2581miner": 16386, "\u2581abusing": 29271, "\u2581rods": 32959, "\u2581interpreting": 35492, "\u2581Ferguson": 15132, "Learn": 20339, "\u2581Africa": 5579, "fortunately": 6769, "\u2581reserve": 11616, "\u2581Rise": 15749, "mil": 25534, "\u2581La": 4790, "\u2581embodiment": 23269, "ropy": 28439, "\u2581abyss": 37779, "\u2581hairs": 33009, "DEM": 39530, "\u2581Chatt": 39545, "immer": 11058, "DEV": 39446, "\u2581Briggs": 44731, "\u2581sensit": 44853, "onomous": 38276, "\u2581seating": 24901, "OW": 4014, "\u2581bitten": 38955, "\u2581hypot": 8914, "\u2581Ys": 43841, "read": 1062, "onse": 2692, "\u2581AM": 3102, "RL": 7937, "aware": 9786, "outed": 18635, "\u2581Chronicles": 17841, "\u2581Publishing": 23600, "hom": 26553, "\u2581flashes": 29328, "\u2581DVD": 12591, "IO": 9500, "\u2581Statistics": 14471, "\u25811971": 16483, "still": 24320, "\u2581Fern": 39083, "257": 28777, "\u2581More": 3226, "\u2581Ec": 14104, "enum": 44810, "\u2581scar": 10254, "\u2581delivering": 13731, "\u2581EQU": 46987, "\u2581visited": 8773, "\u2581arrogant": 28969, "\u2581To": 1776, "\u2581incorporates": 33282, "\u2581debates": 15490, "eling": 10910, "\u2581financed": 29869, "\u2581romantic": 14449, "\u2581storytelling": 23790, "otrop": 34349, "plug": 16976, "\u2581mech": 36672, "\u2581goalt": 30997, "\u2581Browse": 44876, "\u2581delic": 8776, "\u2581Disciple": 48573, "\u2581Snap": 16127, "\u2581FR": 8883, "\u2581waging": 41848, "\u2581funky": 43059, "\u2581pend": 44118, "\u2581{}": 23985, "\u2581harsh": 11960, "\u2581mature": 15446, "\u2581configurations": 25513, "lection": 1665, "\u2581handlers": 32948, "annah": 25862, "\u2581weekday": 28370, "lane": 33634, "\u2581vaccinations": 46520, "\u258130": 1643, "ETHOD": 36353, "\u2581rationale": 25839, "\u2581Pam": 24598, "\u2581Cornell": 27220, "ieri": 29965, "My": 3767, "\u2581Zo": 31746, "Gender": 41495, "\u00d8\u00a9": 45733, "\u2581Expand": 49469, "\u2581command": 3242, "\u2581\u00e3\u0125": 14625, "\u2581straightforward": 15937, "erate": 21721, "Global": 22390, "\u2581Rx": 49816, "\u2581remains": 3894, "\u2581Admiral": 24747, "\u2581OC": 24876, "ossession": 49910, "\u2581merchants": 21880, "\u2581Gore": 17658, "\u2581Letters": 24602, "\u2581Idol": 34493, "\u2581override": 21058, "\u2581GTX": 12747, "reating": 34668, "\u2581oppos": 38743, "\u2581plunge": 32770, "worst": 41531, "\u2581ebook": 47280, "\u2581coerced": 48575, "\u2581clips": 19267, "Vs": 23367, "orically": 26948, "jamin": 13438, "\u2581elegance": 49299, "\u2581NIGHT": 37808, "LAN": 25798, "rupted": 31691, "\u2581Modern": 12596, "\u2581Turk": 8585, "\u258115": 1416, "\u2581locker": 17456, "\u2581rumor": 25090, "\u2581Terminator": 41931, "\u2581signalling": 45930, "\u2581opacity": 46013, "\u2581impacts": 12852, "\u2581BOX": 45317, "\u2581cis": 33426, ".''": 13632, "\u2581corridor": 20850, "Adam": 23260, "\u2581glacier": 44640, "\u2581familiar": 5486, "andering": 42555, "\u2581annihilation": 50073, "ittle": 1307, "\u2581summon": 11558, "\u2581buses": 16994, "\u2581Motion": 20944, "\u2581remarked": 25099, "mone": 47223, "associated": 32953, "294": 27797, "\u2581angrily": 34526, "\u2581webs": 2740, "\u2581surfing": 36355, "MAG": 45921, "\u2581furthe": 46287, "2015": 4727, "random": 25221, "thren": 26042, "asio": 29932, "\u2581controlled": 6957, "idered": 3190, "breaking": 13496, "\u2581hormones": 21412, "\u2581macOS": 40118, "\u2581Calculator": 43698, "\u2581destructive": 17757, "---------------": 24406, "\u2581muse": 26918, "\u2581Spiel": 34942, "\u2581Elys": 42021, "\u2581ERROR": 33955, "\u2581band": 4198, "ebted": 35996, "\u2581topical": 39968, "\u2581backgrounds": 19164, "\u2581Constable": 42178, "assies": 46358, "\u2581Regions": 47190, "\u2581explo": 6795, "\u2581catch": 5030, "\u2581Palestinians": 12991, "\u2581ult": 3890, "\u2581DNC": 17925, "\u2581FAA": 26329, "testing": 33508, "\u2581Austin": 9634, "tracking": 36381, "\u2581Penalty": 41777, "\u2581Chung": 44016, "\u2581canal": 29466, "\u2581ethical": 15129, "bles": 7790, "\u2581Hert": 40131, "\u2581developmental": 23557, "ra": 531, "riv": 15205, "\u2581imply": 20236, "\u2581Foo": 36181, "future": 37544, "\u2581intrinsic": 28428, "\u00d8\u00a8": 39949, "\u2581Cater": 40843, "\u2581505": 43468, "ennis": 10780, "\u2581travels": 17882, "\u2581immediately": 3494, "\u2581ASUS": 38201, "\u2581eyeb": 16168, "\u2581Lloyd": 22462, "\u2581cheerful": 38100, "\u2581conflicts": 12434, "\u2581Goods": 38461, "binary": 39592, "\u2581delve": 39231, "\u2581That": 1421, "\u2581kinetic": 37993, "EE": 6601, "UD": 8423, "\u2581ours": 17004, "Py": 20620, "oku": 11702, "\u2581safest": 33731, "termination": 41483, "Captain": 27999, "\u2581diplomats": 24937, "\u2581tobacco": 11320, "Tri": 14925, "amily": 6094, "constitutional": 18890, "hner": 22378, "\u2581Raqqa": 30492, "\u2581Hide": 10516, "assert": 30594, "onential": 35571, "\u2581Everywhere": 48302, "\u2581poets": 40040, "\u2581paranoid": 30386, "\u2581Trog": 35892, "\u2581overcame": 49591, "\u2581Kal": 12713, "\u2581carts": 44456, "\u2581draws": 14394, "fiction": 24147, "\u2581Goddess": 9589, "\u2581pushing": 7897, "/\"": 30588, "\u2581insignificant": 32182, "\u2581strives": 37974, "izons": 29558, "ographies": 41581, "\u25811964": 17676, "\u2581nont": 46031, "Pan": 15831, "\u2581Myers": 25535, "\u2581hack": 8257, "Mor": 20145, "ometer": 15736, "YR": 38263, "\u2581mother": 2903, "\u2581disciplined": 30755, "\u2581las": 40091, "\u2581bankers": 25192, "\u2581Literature": 33919, "\u2581consecutive": 12886, "\u2581damaged": 9795, "ghai": 20481, "\u2581collisions": 32099, "param": 17244, "\u2581loader": 40314, "Kal": 41529, "\u2581bloodstream": 46106, "\u2581Pictures": 20152, "\u2581Schwartz": 28773, "\u2581dynamically": 32467, "\u2581Vald": 38653, "leases": 29430, "\u2581Labyrinth": 28662, "\u2581ident": 1953, "\u2581Darren": 26304, "\u2581middle": 3605, "\u2581dock": 23524, "\u2581phil": 5307, "asted": 9093, "\u2581Shore": 25860, "orned": 27095, "\u2581vigorous": 31644, "\u2581catast": 15012, "\u2581electrodes": 39881, "Obs": 31411, "roying": 38396, "\u2581spectrum": 11059, "replace": 33592, "1800": 39289, "\u2581through": 933, "sembly": 6098, "Try": 23534, "abwe": 27151, "\u2581Westminster": 20454, "\u2581rooft": 27392, "754": 41975, "\u2581Gerry": 42297, "controller": 36601, "zzo": 47903, "\u2581featuring": 9694, "brainer": 49435, "\u2581itching": 48241, "lect": 902, "\u2581brightness": 22305, "livion": 26119, "\u00e3\u0125\u012c": 26330, "\u2581Ramirez": 34884, "\u2581chew": 34823, "651": 40740, "abee": 32681, "orrect": 47416, "\u2581Trap": 22015, "\u2581Peninsula": 24179, "\u2581listening": 8781, "\u2581eliminates": 32412, "\u2581Pyramid": 41551, "greg": 10004, "\u2581Poe": 34916, "iphate": 35082, "!!!!!": 50285, "basic": 35588, "\u2581Moore": 8978, "\u2581solid": 4836, "EM": 3721, "amin": 5770, "celona": 14409, "\u2581formally": 15933, "ADVERTISEMENT": 19154, "\u2581normally": 7786, "\u2581sadness": 25404, "\u2581hates": 24803, "\u2581altering": 29158, "Ground": 35640, "OU": 2707, "planned": 36901, "WARN": 37872, "yn": 2148, "\u2581Liberty": 14835, "obil": 25999, "\u2581Cisco": 28390, "\u2581vet": 20303, "\u2581simplest": 24144, "\u2581Bernie": 10578, "FTWARE": 37586, "\u2581putting": 5238, "\u2581beaten": 13226, "\u2581Liber": 5362, "\u2581tourist": 18574, "\u2581Work": 5622, "busters": 30282, "\u2581enz": 26466, "\u2581LL": 27241, "485": 32743, "uddled": 32846, "\u2581checking": 10728, "Should": 20027, "\u2581Plenty": 43358, "\u2581jugg": 24974, "\u2581Cortana": 45923, "sr": 27992, "\u2581BuzzFeed": 26422, "\u2581Coul": 27955, "\u2581Thomas": 5759, "\u2581roam": 35664, "\u2581inserted": 18947, "\u2581io": 33346, "ooo": 34261, "\u2581buoy": 36776, "North": 14258, "grounds": 40621, "\u2581painful": 12233, "hra": 45157, "\u2581bolstered": 48778, "\u2581Mary": 5436, "\u2581Term": 35219, "\u2581machines": 8318, "\u2581rise": 4586, "\u2581Pharma": 41946, "because": 13994, "\u2581stove": 27736, "\u2581adherent": 41072, "\u2581messaging": 20026, "ija": 34756, "502": 35227, "\u2581christ": 33927, "awed": 36926, "\u2581Contracts": 49300, "\u2581vict": 2311, "\u2581taxation": 21944, "\u2581Cir": 21340, "Plugin": 37334, "\u2581industries": 11899, ">:": 31276, "~~~~": 8829, "\u2581ounce": 25900, "\u2581specially": 21006, "iqu": 1658, "\u2581resurrected": 42015, "cean": 5930, "atlantic": 43443, "\u2581Comes": 34707, "66": 2892, "\u2581commercially": 26980, "rc": 6116, "\u2581proponent": 42562, "\u00e5\u0124": 43737, "\u2581resent": 20416, "anyl": 34917, "\u2581Functions": 40581, "\u2581polish": 25346, "\u2581SPECIAL": 38947, "\u00c3\u0141": 39784, "\u2581CARE": 47443, "\u2581sights": 21444, ")...": 26614, "\u2581Card": 5273, "iosis": 43061, "ose": 678, "\u00c7": 232, "\u2581Bra": 9819, "\u2581trusted": 13568, "\u2581jer": 13766, "ository": 13365, "\u2581irritated": 38736, "\u2581essence": 12900, "785": 41273, "\u2581evaluated": 16827, "\u2581Hussain": 47778, "\u2581goodness": 20538, "\u0140": 353, "\u2581puck": 20796, "\u2581Jer": 4331, "mination": 18029, "\u2581logs": 17360, "\u2581horribly": 33538, "\u2581verbs": 41882, "\u2581412": 42316, "\u2581precarious": 38862, "\u2581trad": 2184, "05": 2814, "ecake": 46658, "ators": 2125, "landers": 32459, "\u2581Ellison": 33702, "Mo": 16733, "\u2581Clarks": 36032, "\u2581whether": 1872, "\u2581maternal": 22261, "156": 21700, "For": 1991, "\u2581possibly": 5558, "alted": 29691, "\u2581Nev": 9974, "\u2581Charity": 37676, "\u2581excludes": 36934, "Every": 6210, "STER": 41910, "\u2581fame": 16218, "pictured": 28953, "\u2581WTO": 47175, "\u2581grace": 11643, "\u2581households": 12604, "\u2581unconstitutional": 20828, "\u2581slab": 38778, "\u2581Betsy": 45876, "\u2581Prophet": 13684, "background": 25350, "\u2581can": 561, "charging": 31599, "cemic": 40579, "\u2581SJ": 31867, "\u2581Directions": 47527, "resources": 37641, "\u2581Plains": 32082, "031": 43738, "abilia": 48350, "\u2581Falcons": 21127, "\u2581presents": 11070, "pecting": 35671, "cars": 38094, "\u2581Donald": 3860, "\u2581Wh": 955, "\u2581Lia": 49621, "\u2581Nazis": 19248, "gy": 1461, "\u2581arrangements": 14853, "\u2581payroll": 22336, "\u2581especially": 2693, "bral": 24528, "\u2581archaeological": 31072, "incarn": 13312, "Too": 23408, "\u2581prospect": 6135, "adier": 38969, "ynski": 40109, "\u2581MG": 34910, "\u2581prone": 17693, "\u2581Euro": 1999, "\u2581Before": 7514, "\u2581worsh": 26612, "\u2581Arch": 5680, "\u2581ratt": 27364, "otent": 33816, "\u2581amuse": 26173, "UMP": 20577, "\u2581ROS": 48364, "Cmd": 40210, "Mark": 9805, "\u2581Ronnie": 40993, "\u2581Pricing": 45131, "\u2581principle": 8090, "\u011c": 317, "\u2581Czech": 16740, "rence": 6885, "::": 3813, "ped": 9225, "\u2581cyber": 10176, "Arab": 31703, "\u2581persuasive": 40217, "\u2581Stretch": 44590, "\u2581Coulter": 47349, "\u2581reliant": 39251, "rict": 2113, "\u00ef\u00bf\u00bd\u00ef\u00bf\u00bd\u00ef\u00bf\u00bd\u00ef\u00bf\u00bd": 12201, "inately": 48719, "Organ": 26222, "Scient": 23111, "onomy": 30666, "google": 13398, "\u2581provoking": 45726, "\u2581issuance": 30246, "\u2581satisf": 5345, "\u2581rook": 11030, "\u2581packed": 11957, "\u2581Happ": 18422, "158": 21374, "\u2581Bob": 5912, "\u2581earnest": 23277, "pine": 24009, "\u2581rob": 3958, "\u2581Vox": 28136, "\u2581canned": 32631, "automatic": 37901, "eely": 45370, "\u2581beetles": 46817, "anasia": 45652, "\u2581characteristic": 16805, "\u2581elsewhere": 8158, "\u2581pricey": 43345, "\u2581breaking": 7264, "\u2581Weir": 46770, "\u2581Official": 16035, "\u2581Stay": 16261, "anges": 6332, "\u2581Inher": 47126, "\u2581journalists": 9147, "sal": 21781, "\u2581Silver": 7799, "VPN": 33984, "\u2581UNC": 39252, "\u2581Cinderella": 41034, "\u2581Clarence": 42703, "\u2581aroused": 38933, "omination": 27845, "\u2581majority": 3842, "\u2581interven": 14219, "162": 25162, "\u2581guarding": 33395, "whether": 25457, "\u2581Rohing": 32672, "\u2581Gould": 39393, "\u2581selves": 40924, "\u2581orig": 1897, "\u2581Pearce": 42003, "\u00e3\u0125\u00bc\u00e3\u0124\u00af": 42970, "Mars": 43826, "\u2581controvers": 5568, "Liber": 31300, "\u2581kicking": 18098, "\u2581influence": 4689, "\u2581thunder": 18456, "\u2581Huckabee": 38354, "\u2581inclusion": 15001, "Base": 14982, "\u2581Plato": 33077, "rical": 8244, "\u2581deductible": 42262, "\u2581recommends": 20930, "catching": 50207, "\u2581distur": 11340, "\u2581Siber": 28495, "\u2581Drone": 39060, "\u2581sleepy": 42124, "\u2581multiplying": 48917, "\u2581ACT": 11842, "\u2581rendition": 40671, "\u2581pageant": 47995, "aples": 28725, "\u2581WS": 25391, "\u2581faux": 36849, "\u2581embarrassed": 21201, "Tool": 25492, "endix": 19674, "\u2581indignation": 48790, "\u2581sized": 20044, "\u2581murderer": 29363, "-.": 34608, "extreme": 29997, "\u2581Rebel": 24652, "\u2581slashed": 35031, "metry": 42036, "lying": 3258, "\u2581LD": 27279, "\u2581autos": 44720, ")=": 47606, "\u25811939": 24515, "ourced": 30656, "\u2581mimic": 26433, "\u2581encamp": 48121, "\u2581absolute": 4213, "\u2581servant": 18908, "\u2581Poland": 12974, "ovy": 27897, "\u00e7\u0130\u012d": 25682, "Phase": 35746, "mast": 47717, "Will": 8844, "u": 185, "\u2581elaborate": 16063, "Pred": 39257, "\u2581ordinarily": 43706, "\u2581Tower": 8866, "cing": 2360, "ificial": 9643, "\u2581insufficient": 19123, "')": 11638, "\u2581scraps": 44597, "\u2581Ohio": 6936, "Sw": 10563, "\u2581Pierre": 21305, "\u2581concluding": 31184, "\u2581submission": 14599, "\u2581Ble": 17276, "\u2581TSA": 32554, "Critics": 36724, "\u2581Yamaha": 45584, "\u2581IQ": 18349, "\u2581Allison": 33562, "CHAPTER": 41582, "\u2581invoking": 39845, "\u2581performance": 2955, "\u00e6\u0126": 35808, "\u2581margin": 10431, "\u2581jack": 14610, "Questions": 35842, "\u2581casino": 21608, "\u2581soda": 20685, "\u2581recruitment": 19725, "\u2581lakes": 24869, "\u2581awfully": 45522, "\u2581cape": 36124, "\u2581biome": 48594, "\u2581anatomical": 48732, "Storage": 31526, "kson": 46606, "998": 34909, "\u2581fru": 12759, "Hill": 36470, "\u00e2\u0122\u00a6": 1500, "\u2581UK": 3583, "otten": 4829, "which": 4859, "ordan": 7451, "\u2581on": 420, "\u2581dramatically": 12135, "\u2581consequence": 13022, "\u2581canon": 18162, "\u2581dollar": 8973, "\u2581dioxide": 17657, "\u2581responsive": 21903, "\u2581suspect": 4200, "////": 9806, "\u2581165": 21510, "015": 25251, "\u2581pharm": 10214, "Mech": 28553, "orks": 3748, "\u2581ought": 10884, "\u2581reviewing": 17318, "index": 9731, "Being": 18458, "\u2581der": 4688, "Business": 24850, "\u2581Collective": 29229, "\u2581cap": 1552, "\u2581airst": 20354, "Ds": 30933, "\u2581conveyed": 33449, "gm": 39971, "generic": 41458, "\u2581vex": 41649, "\u2581valves": 41944, "\u2581fuller": 44858, "Compar": 50350, "\u0119": 314, "\u2581WARRANT": 34865, "\u2581shootings": 17791, "\u2581Pepe": 49862, "URES": 29615, "\u2581seasons": 7129, "\u2581jour": 30169, "jac": 30583, "\u2581FreeBSD": 35942, "\u2581demonstrating": 21236, "eed": 2409, "\u2581knob": 36943, "umenthal": 42401, "\u2581resist": 4281, "\u2581Pir": 10435, "./": 19672, "\u2581major": 1789, "rians": 19252, "\u2581trivial": 20962, "\u2581employs": 24904, "\u2581ancient": 6257, "\u2581crippling": 38054, "ires": 2488, "Princ": 43005, "Invalid": 44752, "\u2581slaughter": 18069, "\u2581competitions": 24275, "century": 14893, "\u2581460": 34192, "\u2581Drupal": 40553, "\u2581aer": 9652, "\u2581Tracks": 42360, "\u2581mp": 29135, "\u2581props": 25845, "\u2581Darius": 47230, "\u2581discouraging": 48102, "\u2581farther": 18586, "\u2581discontin": 20037, "Union": 38277, "\u2581evolves": 43677, "Cho": 22265, "\u2581Fren": 39309, "\u2581Sind": 44931, "\u2581Representatives": 17233, "\u2581Configuration": 28474, "\u2581Dw": 19214, "eco": 47805, "\u2581Cthulhu": 39417, "http": 4124, "\u2581burn": 4346, "eters": 7408, "2006": 13431, "lash": 17156, "\u2581versatile": 21463, "ensing": 26527, "omes": 2687, "iste": 40934, "\u2581valuable": 8220, "adin": 17173, "culture": 25685, "\u2581sniper": 26261, "llular": 32872, "ises": 2797, "\u2581productions": 32361, "\u2581Kov": 43427, "670": 43899, "\u2581Ras": 28614, "\u2581trickle": 41955, "\u2581brushing": 42899, "\u2581festive": 43957, "\u2581enticing": 47561, "\u00cf\u012b": 49636, "orting": 24808, "\u2581Treaty": 21446, "\u2581robbed": 26874, "girl": 15320, "\u2581preferential": 47237, "NT": 11352, "\u2581Instrument": 42511, "iox": 12291, "\u2581manager": 4807, "\u2581Story": 8463, "\u2581este": 43678, "\u2581Vor": 44244, "\u2581commuting": 45410, "Tumblr": 39516, "wife": 22196, "goers": 31107, "eals": 10722, "intelligence": 32784, "\u2581employee": 6639, "\u2581Burning": 21561, "\u2581react": 6425, "\u2581roommate": 33406, "\u2581Vick": 33448, "\u2581quant": 5655, "\u25811947": 21810, "\u2581dogma": 41038, "\u2581void": 8052, "lesh": 29831, "Fall": 24851, "\u2581delusional": 46036, "\u2581Silicon": 18311, "\u2581Brees": 46474, "\u2581customized": 27759, "\u2581Aaron": 12240, "tech": 13771, "\u2581pink": 11499, "wood": 3923, "\u2581preview": 12815, "computer": 33316, "kamp": 41000, "Unix": 47101, "utter": 10482, "\u2581Vari": 16066, "ido": 17406, "\u2581Gri": 21015, "\u2581transmitter": 35200, "\u2581restrain": 39401, "\u2581emoji": 44906, "Disable": 48994, "China": 14682, "\u2581CW": 24107, "\u2581whatsoever": 16115, "\u2581unified": 22807, "\u2581ultras": 32967, "Al": 2449, "\u2581maneu": 16237, "\u2581SHA": 25731, "<unused_41>": 42, "You": 1740, "\u2581Gallery": 13018, "\u2581XL": 16377, "\u2581RX": 24303, "\u2581Neck": 34827, "hirt": 49857, "\u2581realised": 19270, "ff": 588, "\u2581Chamberlain": 46019, "\u2581MED": 26213, "isible": 12944, "License": 34257, "\u2581sliding": 22393, "\u2581Ich": 26465, "\u2581Mike": 5096, "(&": 39535, "\u2581injecting": 41851, "\u2581valiant": 46359, "\u2581Fury": 18528, "wic": 22765, "\u2581enthusiast": 33572, "\u2581asynchronous": 39455, "\u2581Tottenham": 24373, "\u2581coast": 7152, "\u2581pellets": 43778, "\u2581objectionable": 48641, "\u2581beaches": 25686, "\u2581Bees": 46799, "vest": 4324, "\u2581liver": 14484, "image": 9161, "TF": 10335, "\u2581swinging": 25736, "\u2581smells": 25861, "aki": 8283, "\u2581Heart": 8995, "\u258186": 9950, "\u2581sons": 12090, "\u2581surn": 33214, "\u2581Tw": 1916, "lements": 3740, "\u2581degradation": 27587, "\u2581Squid": 48900, "\u2581International": 4138, "Eng": 8037, "\u2581aesthetic": 19814, "\u2581dracon": 27834, "201": 1365, "HR": 17285, "\u2581enthusiastic": 21949, "\u2581sits": 10819, "Rule": 32030, "\u2581smoothly": 21562, "\u2581nightmares": 33402, "\u2581fractured": 34152, "ea": 18314, "\u2581Rafael": 32019, "\u2581hiatus": 37110, "\u2581drops": 10633, "\u2581Fact": 19121, "\u2581await": 25608, "\u2581Berg": 24727, "\u2581livestock": 24525, "\u2581prowess": 30822, "dated": 8816, "\u2581suppose": 11792, "everything": 37915, "\u2581Salam": 38271, "Tour": 39253, "\u2581tendon": 42306, "\u2581pictured": 18016, "ctx": 49565, "odka": 28702, "odies": 5143, "length": 13765, "Remote": 36611, "\u2581Rou": 13977, "\u2581Nonetheless": 27352, "\u00c2\u00b4": 18366, "\u2581erase": 28703, "^": 162, "\u2581Defender": 25634, "ussian": 31663, "tery": 11572, "ieves": 18075, "\u2581towels": 38595, "\u2581Linux": 7121, "\u2581Democracy": 20366, "\u2581Left": 9679, "annie": 42984, "joice": 41127, "\u2581Valhalla": 48863, "guide": 41412, "\u2581prestige": 29164, "\u2581pierced": 41260, "060": 41423, "\u2581cruiser": 35340, "reditary": 47434, "\u2581Antiqu": 47890, "\u2581coordin": 11486, "\u2581subject": 2527, "\u2581emerged": 9450, "\u2581insect": 12934, "division": 21527, "\u010a\u010a": 729, "Dave": 28085, "\u2581Lah": 30794, "\u2581inexpl": 33300, "\u0137": 344, "\u2581mitigation": 33686, "\u2581unchecked": 40133, "Cooldown": 46054, "\u2581staggered": 48581, "\u011d": 318, "usual": 37951, "staff": 28221, "\u2581transl": 4880, "\u2581affiliated": 18653, "\u2581STD": 48672, "\u2581cubic": 27317, "Whoever": 47997, "drops": 49354, "\u2581eager": 11170, "\u2581thinks": 6935, "\u2581ELE": 40443, "bard": 23125, "\u2581Tec": 48358, "\u2581F": 477, "\u2581naval": 19115, "olics": 19716, "\u2581Ling": 25217, "\u2581tomorrow": 9540, "controlled": 14502, "\u2581powerhouse": 34987, "icter": 36379, "\u2581Andrea": 23275, "\u2581boldly": 42932, "ethyst": 44267, "\u2581Warfare": 20846, "\u2581whistlebl": 24617, "\u2581stre": 2038, "\u2581counteract": 47679, "Kansas": 43552, "laden": 35769, "\u2581obnoxious": 43384, "\u258127": 2782, "\u2581segregation": 26819, "Width": 31017, "410": 33390, "\u2581developing": 6023, "\u2581Odd": 20765, "\u2581Cind": 24546, "\u2581lords": 33301, "\u2581unsustainable": 39655, "\u2581Tourism": 42158, "\u2581Mechanics": 47671, "Nut": 49105, "\u2581Again": 6622, "\u2581establishing": 15111, "\u2581670": 48237, "\u00b2": 211, "Kevin": 23966, "Raw": 27470, "\u2581DOWN": 30421, "GO": 11331, "\u2581Uriel": 49315, "AE": 14343, "otive": 19239, "\u2581hospitality": 33463, "\u2581amino": 23307, "\u2581Bind": 41312, "ily": 914, "Fram": 21156, "\u2581contributions": 9385, "\u2581disappear": 11022, "\u2581Physical": 16432, "\u2581ace": 31607, "udden": 16658, "vance": 19360, "TOP": 35323, "\u2581High": 3435, "ocom": 42930, "\u2581Tut": 22893, "\u2581Kane": 20156, "\u2581Moving": 26869, "\u2581accumulating": 44758, "hematically": 46659, "\u2581CPUs": 32441, "\u2581attacking": 9375, "\u2581topped": 20734, "\u2581Tyson": 27421, "ceans": 20062, "ches": 2153, "\u2581sem": 5127, "Shin": 44693, "ani": 3317, "\u2581widen": 45777, "vich": 49648, "sheets": 42112, "\u2581ate": 15164, "between": 23496, "\u2581retire": 8159, "\u2581degrees": 7471, "\u2581fisheries": 41541, "\u2581Cruel": 44254, "epad": 47953, "\u2581flesh": 11323, "\u00e0\u00a9": 43398, "\u2581recre": 11128, "gamer": 36616, "\u2581Lamar": 27008, ">]": 38082, "\u2581executable": 28984, "\u2581deadlines": 36874, "\u2581Naked": 41720, "\u2581Reuters": 8529, "\u2581manners": 33659, "<row>": 61, "Qual": 46282, "\u2581rare": 4172, "\u2581caliphate": 48152, "orage": 5046, "uries": 4841, "\u2581Hug": 13006, "trade": 25452, "\u2581Christine": 26189, "\u2581Gets": 29721, "\u2581Ent": 7333, "cur": 22120, "Delta": 42531, "OR": 1682, "\u2581stuffing": 43773, "\u2581retrie": 13337, "\u2581Platform": 19294, "\u2581borrow": 8905, "\u2581Plaint": 31414, "\u2581Collabor": 37423, "\u2581pooled": 44863, "\u2581Borg": 29105, "\u2581est": 1657, "\u2581routinely": 16332, "mass": 22309, "\u2581kindergarten": 38818, "Conservative": 42140, "terior": 14273, "\u2581questioning": 14186, "\u2581feathers": 27501, "\u2581ascended": 44541, "\u2581know": 861, "\u2581ties": 8571, "\u2581Feedback": 37875, "\u2581blind": 7871, "United": 17114, "\u2581Piece": 27154, "\u2581Tanks": 31609, "fully": 2860, "\u2581an": 382, "ades": 2468, "\u2581Kent": 8859, "\u2581Will": 2662, "icipated": 41089, "\u2581Sach": 20779, "\u2581knowing": 7071, "\u2581\u00c2\u00b0": 22175, "ifiable": 16924, "lor": 4786, "atum": 21408, "olitics": 21805, "\u2581community": 2156, "\u2581Vul": 25543, "\u2581Georgetown": 31494, "\u2581withheld": 31554, "\u2581Weird": 34198, "Aug": 12613, "\u2581ambitions": 22556, "Associated": 29115, "sensitive": 30277, "ball": 1995, "\u2581fancy": 15097, "\u2581Started": 31127, "ship": 6821, "\u2581Fuller": 31964, "\u2581digitally": 34592, "addock": 35610, "othing": 24935, "\u2581enormously": 36106, "\u2581Sci": 10387, "\u2581Mahmoud": 38655, "\u2581Pedro": 28956, "\u2581Transmission": 41754, "imoto": 43455, "review": 19124, "Products": 48751, "\u2581Greenberg": 46803, "\u2581157": 23414, "Craft": 14568, "\u2581planning": 5511, "ebook": 16598, "true": 8043, "\u2581Besides": 16339, "world": 6995, "\u2581ring": 5959, "\u2581surreal": 28302, "isher": 4929, "405": 26699, "urally": 20322, "\u2581false": 4092, "\u2581choices": 7848, "lies": 13609, "\u2581teacher": 4802, "\u2581harmonic": 49340, "\u2581punish": 6979, "\u2581Curry": 21021, "mp": 3250, "[_": 29896, "\u2581evidence": 2471, "stream": 5633, "\u2581Featured": 38289, "\u2581Treasure": 20316, "Bs": 37101, "\u2581existing": 4784, "Life": 14763, "\u2581illicit": 24372, "\u2581Celestial": 37332, "absolute": 48647, "\u2581water": 1761, "Double": 25729, "\u2581barred": 24003, "\u2581everyone": 2607, "\u2581although": 3685, "anos": 40116, "milo": 49096, "\u2581Phill": 11978, "\u2581fortnight": 46428, "\u2581skirts": 42471, "groups": 24533, "ipedia": 11252, "\u25811860": 37738, "iped": 46748, "\u2581held": 2815, "\u2581defenseman": 32347, "\u2581On": 1651, "\u2581cl": 638, "\u2581bribery": 37489, "pire": 5212, "heads": 16701, "\u2581Processing": 28504, "\u2581fantasies": 30263, "\u2581concession": 33231, "adiator": 33817, "\u2581keeper": 28457, "\u2581Furn": 35038, "\u2581alum": 46619, "oeuv": 37701, "\u2581migrated": 40328, "Court": 36800, "\u2581fruit": 8335, "\u2581unden": 26813, "\u2581Arduino": 27735, "\u2581brilliant": 10558, "\u2581counties": 14784, "\u2581elev": 7763, "director": 35349, "Dual": 36349, "tesque": 37523, "\u2581taunt": 48247, "\u2581Mercedes": 21380, "235": 22471, "\u2581thinking": 3713, "\u2581inadequ": 17982, "\u2581Ci": 37786, "\u2581Psychic": 38975, "\u2581cable": 7963, "\u2581SOU": 30166, "Refer": 46339, "\u00e7\u013c\u0126": 21511, "\u2581)": 1368, "\u2581Any": 4478, "\u2581converted": 11614, "\u2581dism": 18200, "\u2581Participant": 29981, "apply": 39115, "market": 10829, "orship": 11195, "\u2581Hosp": 40047, "\u2581revolutionaries": 44448, "\u2581peach": 47666, "\u2581dependency": 20304, "\u2581subscriber": 33045, "resso": 33953, "immigration": 47721, "\u2581engaged": 8054, "\u2581bald": 28374, "\u2581Buddha": 19255, "org": 2499, "\u2581stealing": 16669, "hig": 25297, "\u2581Conclusion": 44891, "\u2581Bros": 14367, "\u2581Moreover": 11069, "\u2581Sever": 26535, "\u2581Michaels": 44869, "\u2581Backup": 35172, "\u2581purposefully": 45237, "\u2581usually": 3322, "\u2581obligation": 13091, "\u2581Mercenary": 50070, "\u2581wages": 9501, "winning": 14564, "\u2581supplies": 9517, "\u2581envoy": 39238, "\u2581Ch": 710, "\u2581Tsu": 23560, "\u2581USS": 23217, "\u2581Membership": 38040, "\u2581restless": 42638, "\u2581Shattered": 48431, "ust": 537, "\u2581downloading": 22124, "\u2581Pratt": 34881, "\u2581Hornets": 38703, "\u2581Ident": 11541, "\u2581gripping": 40032, "ructose": 32376, "trained": 35412, "apolis": 11275, "\u25811955": 25426, "\u2581consequences": 7049, "\u2581func": 25540, "\u2581LSD": 27584, "driven": 15909, "\u00e2\u0122\u00a6\u00e2\u0122\u00a6\u00e2\u0122\u00a6\u00e2\u0122\u00a6": 15965, "\u00e9\u0138": 38562, "ef": 992, "\u2581fast": 3150, "Drag": 46123, "\u2581onboard": 25964, "\u2581chromosomes": 42843, "\u2581captcha": 49073, "recent": 50022, "isbury": 48068, "arella": 45595, "\u2581355": 36662, "\u2581peer": 12821, "\u2581mist": 4121, "\u2581connecting": 14421, "\u2581alienated": 41359, "\u2581vig": 10640, "\u2581Motor": 12634, "Muslim": 17168, "\u2581felony": 14645, "ULT": 16825, "Order": 18844, "K": 143, "Hop": 23584, "\u2581Beaver": 42847, "Central": 30746, "\u2581Twitter": 3110, "\u2581Bruce": 11189, "\u2581fret": 34061, "Arg": 28201, "neum": 25769, "486": 34352, "element": 30955, "\u2581fac": 1878, "feel": 36511, "\u2581modern": 3761, "igans": 34191, "\u2581sung": 23669, "\u2581145": 20400, "web": 12485, "\u2581confuse": 27632, "opoulos": 20439, "Cons": 9545, "\u2581offenses": 18615, "nyder": 21154, "rafted": 30336, "\u2581trustees": 36737, "ma": 2712, "\u2581certificate": 10804, "\u2581Highly": 38355, "\u2581unmarried": 39284, "vc": 28536, "\u2581Libre": 44485, "\u2581promot": 4357, "Active": 13840, "\u2581Shinra": 48082, "\u2581positives": 38649, "\u2581ric": 12511, "\u2581Brandon": 14429, "\u2581Imperial": 11874, "efficients": 42046, "\u2581setting": 4735, "\u2581Wheat": 34845, "\u2581philosophy": 8977, "\u2581ginger": 25173, "\u2581rays": 24924, "\u2581Scalia": 32676, "\u2581engraved": 41237, "azing": 4171, "\u2581terrorism": 8750, "\u2581humiliated": 42760, "\u2581Voc": 47309, "\u2581university": 6504, "path": 7079, "rett": 11590, "\u2581Yahoo": 16652, "\u2581conjunction": 17957, "\u2581Hancock": 39362, "\u2581PLEASE": 37896, "Offic": 12811, "\u2581rock": 3982, "\u2581insin": 43654, "ile": 677, "\u2581propagation": 43695, "\u2581attracting": 25243, "\u00c3\u00a2": 23041, "52": 4410, "\u2581Total": 7573, "\u2581Ded": 35124, "Are": 8592, "complex": 41988, "\u2581Woods": 16584, "Bot": 20731, "Doctor": 37665, "\u2581Auditor": 39039, "Column": 39571, "\u2581luckily": 45221, "\u2581SPL": 46442, "\u2581rc": 48422, "\u2581shenanigans": 49050, "\u2581Engineering": 14145, "\u2581Coconut": 47044, "\u2581eggs": 9754, "\u2581explained": 4994, "\u2581Notes": 11923, "\u2581treasures": 29662, "\u2581frenzy": 32035, "\u2581deadly": 10410, "\u2581exposes": 32243, "\u2581unforgettable": 45605, "\u2581deflation": 46608, "\u00e6\u00a9\u0141": 50061, "\u2581heir": 28726, "\u2581poke": 22721, "\u2581Marin": 36485, "phia": 8294, "\u2581deline": 47026, "\u2581incarn": 22302, "\u2581Pug": 33361, "nos": 39470, "\u2581Analyst": 44701, "ns": 6008, "\u2581skilled": 14398, "ments": 1003, "\u2581smartphone": 11846, "pport": 5027, "\u2581Within": 12612, "\u2581meaningless": 24614, "322": 37384, "urrency": 13483, "\u2581improving": 10169, "\u2581preceded": 27266, "eme": 34856, "\u2581Cele": 19010, "\u2581mt": 45180, "\u2581exagger": 16013, "\u2581Selling": 48020, "\u2581unwelcome": 47308, "weed": 39155, "\u2581Miko": 49172, "\u2581``": 7660, "\u2581official": 1844, "\u2581kernel": 9821, "\u2581Educational": 30139, "\u2581immersive": 31504, "inc": 2040, "\u2581Fiction": 26857, "conserv": 39026, "\u2581citations": 33600, "\u2581Binary": 45856, "pher": 17143, "Winter": 35477, "\u2581Wald": 24362, "\u2581wearable": 39193, "\u2581afforded": 28210, "oys": 19518, "grey": 49603, "\u2581Studies": 10523, "tier": 25049, "\u2581neo": 19203, "Lou": 24117, "\u2581controversies": 36613, "\u2581apex": 40268, "\u2581easy": 2663, "\u2581disease": 4470, "\u2581mast": 17389, "\u258158": 7719, "\u2581offender": 19696, "\u2581NI": 25048, "\u2581noticed": 6911, "than": 14914, "\u2581dors": 37751, "\u2581Woo": 39933, "\u2581es": 1759, "\u2581vit": 9191, "\u2581127": 18213, "\u2581campuses": 23104, "\u2581protest": 5503, "\u2581spont": 18425, "\u2581collaborative": 25509, "\u2581meal": 9900, "GAME": 47210, "\u2581than": 722, "\u2581Male": 12775, "Engine": 13899, "\u2581smoked": 21704, "g": 171, "ventions": 16694, "\u2581vest": 19851, "\u2581LAW": 38776, "\u2581pretending": 23763, "ificantly": 42592, "\u2581theorist": 46511, "\u2581laughable": 47724, "\u2581Hind": 17200, "\u2581Stri": 26238, "\u2581missing": 4915, "\u2581daylight": 26111, "\u2581465": 49770, "\u2581medicinal": 30482, "\u2581hereafter": 50013, "\u2581nickel": 30767, "\u2581Mach": 7181, "span": 12727, "\u2581ridge": 32626, "Import": 21040, "\u2581VR": 6554, "\u2581consec": 43039, "\u2581quotes": 13487, "\u2581solar": 6692, "yt": 20861, "\u2581Salmon": 44057, "\u2581FIL": 34121, "\u2581Our": 4055, "istered": 23288, "374": 31121, "****": 2567, "estone": 13732, "\u2581FIG": 19798, "loss": 22563, "\u2581reviews": 8189, "\u2581Vas": 23764, "\u2581Alternative": 27283, "\u2581Lead": 20217, "\u2581Day": 3697, "\u2581CU": 29470, "uria": 34585, "\u2581merits": 21793, "\u2581Corpse": 45412, "\u2581Unlock": 39727, "\u2581Vid": 39066, "restling": 48940, "ameda": 49738, "\u2581Communications": 14721, "\u2581UR": 38003, "astical": 32145, "oreal": 39497, "\u2581Boom": 31925, "\u2581Recomm": 19338, "\u2581spike": 20341, "graph": 35061, "\u2581rice": 11565, "\u2581soil": 9361, "\u2581depends": 8439, "terson": 23293, "\u2581asserted": 21736, "inem": 7850, "\u2581stink": 48406, "fm": 38454, "\u2581Deutsche": 36864, "gam": 28584, "\u2581Lac": 23216, "\u2581McDonnell": 39542, "\u2581Faul": 44861, "ha": 3200, "\u2581\u00f0\u0141\u013a": 30426, "\u2581convert": 10486, "\"?": 14085, "\u2581indicating": 12840, "\u2581robots": 14294, "\u2581Knight": 6801, "\u2581didn": 1523, "\u2581nobody": 8269, "\u2581temporary": 8685, "Force": 10393, "\u2581Prep": 19242, "\u2581neurons": 16991, "Previously": 36938, "oons": 13123, "\u2581Eighth": 41141, "Ba": 34559, "Ill": 21579, "ceptive": 25968, "\u2581ended": 4545, "\u2581ingenious": 44308, "\u2581consequential": 44878, "\u2581woodland": 49710, "\u2581fif": 5616, "ribed": 8826, "\u2581organisations": 16536, "flake": 47698, "rays": 20578, "\u2581totem": 50031, "\u2581Called": 34200, "\u2581Seaf": 50068, "\u2581fond": 16346, "\u2581spawn": 11023, "\u2581Bulgar": 26264, "\u2581tariffs": 29341, "\u2581assemb": 11257, "\u2581versatility": 31790, "bryce": 32625, "\u2581Forest": 9216, "\u2581Neuro": 13883, "Sov": 38675, "\u00a5": 199, "\u2581morphology": 46421, "Said": 47739, "ydia": 30809, "\u2581b": 376, "nir": 33087, "\u2581watchdog": 26957, "\u2581115": 12380, "\u2581overt": 10030, "\u2581117": 19149, "waves": 32670, "\u00cf\u0124": 35659, "\u2581belongings": 31086, "cape": 36536, "\u2581persuade": 21100, "\u2581Shit": 41457, "\u2581restores": 45916, "\u2581COURT": 46728, "\u2581worsen": 47159, "\u2581Graves": 37830, "\u2581able": 1599, "matched": 31510, "\u2581horm": 12342, "\u2581Point": 6353, "AL": 1948, "\u2581graves": 30156, "\u2581Rye": 45115, "\u2581convinc": 15710, "\u2581tenth": 24496, "\u2581seldom": 25230, "\u2581spending": 4682, "\u2581penalty": 7490, "\u2581ally": 12626, "igible": 26133, "\u2581provoked": 29680, "708": 32684, "\u2581resulted": 8825, "\u2581scant": 35284, "\u2581wins": 7965, "\u2581nutritional": 24101, "\u2581Bry": 9193, "\u2581din": 16379, "\u2581Dale": 20513, "PsyNetMessage": 28767, "checking": 41105, "actionDate": 31639, "\u2581downward": 20942, "osh": 3869, "\u2581competitors": 13962, "\u2581legisl": 3661, "Inst": 6411, "ounced": 9019, "\u2581vibr": 12712, "\u2581Zimbabwe": 28690, "602": 31519, "Tier": 35353, "\u2581Clinton": 2706, "\u2581Auto": 11261, "\u2581Oil": 11575, "jin": 18695, "\u2581panc": 22255, "\u2581Mate": 24888, "\u2581coated": 30368, "\u2581ostensibly": 31555, "\u2581diagonal": 40140, "\u2581encour": 4153, "Take": 12423, "\u2581Fiat": 23428, "\u2581scientists": 5620, "\u00e5\u00b9": 33277, "\u2581Number": 8014, "\u2581Nil": 29314, "\u2581instructions": 7830, "\u2581exotic": 21137, "verbs": 46312, "ECTION": 24666, "\u2581Chaff": 46380, "\u2581Whitman": 48059, "Hen": 26156, "EEE": 32010, "646": 27821, "\u2581LLP": 43346, "ike": 623, "\u2581gaze": 17942, "cery": 12858, "\u2581imposing": 20915, "\u2581Pat": 3309, "\u2581crust": 20149, "\u2581Gi": 8219, "counter": 24689, "\u2581stigma": 26796, "\u2581stockp": 29635, "\u2581chanting": 31239, "\u2581mainstream": 8762, "\u2581BDS": 33842, "/#": 31214, "\u2581nerv": 8761, "\u2581Vent": 15817, "\u2581Riley": 22738, "\u2581polymorph": 34297, "inventoryQuantity": 39857, "\u2581Khan": 11457, "\u2581foolish": 19639, "IRE": 41837, "\u2581Judging": 47125, "letico": 47387, "\u00e0\u00a6": 48172, "\u2581Surv": 11055, "\u2581supplemented": 41711, "\u2581renovated": 46454, "\u2581confessed": 25724, "skilled": 44986, "Car": 10015, "\u2581Duty": 18205, "\u2581tons": 10961, "\u2581Ronaldo": 36410, "\u2581Rwanda": 38608, "\u2581he": 440, "\u2581lake": 13647, "\u2581Curious": 44370, "cess": 1020, "ki": 4207, "\u2581Brooke": 46560, "\u2581Proud": 39826, "gui": 48418, "\u2581relates": 18537, "sequence": 43268, "\u2581multi": 5122, "\u2581recording": 8397, "LIN": 34610, "\u2581XIII": 35403, "short": 19610, "\u2581undead": 26906, "Ast": 33852, "\u2581Joel": 18724, "\u2581KE": 47235, "\u2581wine": 8338, "zb": 15070, "\u2581presentations": 27810, "\u2581feas": 18502, "\u2581nutritious": 48203, "\u2581Rah": 18756, "\u2581[/": 46682, "\u2581yesterday": 7516, "\u2581Ankara": 28861, "ties": 4379, "thirst": 48933, "socket": 45072, "\u2581locom": 33435, "\u2581Enjoy": 18280, "On": 2303, "oya": 23891, "\u2581charities": 24081, "\u2581camoufl": 32063, "\u2581skulls": 38657, "lag": 31010, "\u2581catalyst": 31458, "\u2581overtime": 17921, "\u2581previous": 2281, "\u2581Icon": 26645, "Frames": 35540, "\u2581Wembley": 49712, "\u00e3\u0125\u00b4": 29853, "\u2581interpol": 39656, "testers": 27306, "angel": 8469, "\u2581buyers": 14557, "\u2581socialist": 15990, "\u2581endeav": 21620, "\u2581(\u00e2\u012a\u0134": 35609, "\u2581Cooperative": 43558, "rosc": 46044, "\u2581meanwhile": 15167, "ika": 9333, "\u2581quit": 11339, "\u2581Zhu": 33245, "\u2581MISS": 49785, "\u2581Communication": 26218, "\u2581Posted": 13019, "\u2581LB": 22300, "\u2581sentences": 13540, "\u2581pollen": 40463, "\u2581Yose": 38196, "\u2581NATO": 11433, "hai": 44589, "\u2581Ernst": 38230, "\u2581negligible": 36581, "\u2581attempt": 2331, "603": 35743, "\u2581Guid": 37127, "\u2581carrot": 40663, "\u2581Hua": 43810, "<?": 48035, "?)": 10192, "iferation": 49902, "\u2581electr": 30981, "Min": 9553, "\u2581fence": 14091, "\u2581divert": 36684, "\u2581apprehend": 30301, "\u2581buck": 10331, "\u2581UCS": 49654, "\u2581temples": 27182, "\u2581disciplines": 29962, "cont": 3743, "\u2581brothers": 9498, "\u2581imports": 18045, "ifying": 4136, "physical": 42955, "Auth": 30616, "\u2581repairing": 39106, "door": 9525, "\u2581volunteers": 11762, "ONG": 18595, "\u2581datas": 19496, "ination": 1984, "\u2581Kore": 3475, "Ser": 7190, "\u2581Elsa": 19327, "\u2581Place": 8575, "\u2581disabilities": 19459, "\u2581surge": 13954, "elo": 22227, "achusetts": 9871, "bucks": 19100, "\u2581Aurora": 22319, "\u2581broadcaster": 26762, "question": 25753, "ancel": 21231, "\u2581bending": 30909, "\u2581Ze": 9134, "amba": 31943, "\u2581brewers": 36770, "\u2581Kiss": 20451, "\u2581398": 39361, "\u2581peg": 41451, "ague": 2165, "\u2581facto": 26227, "quartered": 42609, "rupulous": 46373, "409": 29517, "\u2581fines": 17277, "\u2581process": 1530, "Content": 19847, "utherland": 45485, "unic": 47004, "\u2581uncont": 28706, "chev": 50017, "\u2581Mia": 32290, "\u2581delightful": 32428, "\u2581194": 30584, "\u2581bees": 17103, "medium": 24233, "\u2581compressed": 25489, "Opt": 27972, "\u2581analytics": 23797, "\u0135\u013a": 23697, "\u2581ray": 26943, ")=(": 35894, "7601": 42853, "\u2581molded": 46826, "Exactly": 47274, "\u2581roses": 42253, "urb": 6046, "\u2581Integrity": 39449, "\u2581manifestation": 30667, "Altern": 23182, "\u2581germ": 41272, "\u2581meaning": 3717, "osc": 17601, "ritis": 27499, "\u2581leaves": 5768, "Appearances": 47670, "\u2581Rush": 13164, "\u2581boom": 14267, "\u2581scor": 34304, "\u00e5\u00ae": 22623, "\u2581weap": 2533, "\u2581SW": 12773, "\u2581Technique": 41418, "concept": 43270, "\u2581CBS": 11234, "\u2581waves": 9914, "\u2581significantly": 5667, "\u2581banking": 11855, "\u2581Asian": 7841, "project": 16403, "\u2581mountains": 12370, "Holy": 33437, "\u2581disadvantages": 38558, "recated": 31124, "\u2581styles": 12287, "inion": 24072, "\u013e": 351, "\u2581sterile": 38798, "\u2581fabrics": 39634, "Reply": 36976, "\u2581Airl": 16117, "axe": 38332, "\u2581HL": 38413, "\u2581Ogre": 30761, "\u2581Hearth": 31170, "\u2581302": 32692, "lers": 8217, "allic": 18297, "\u2581appreciation": 19264, "\u2581special": 2142, "\u2581advantages": 13492, "\u2581garg": 44772, "\u2581PlayStation": 14148, "Sarah": 29385, "\u2581disturbed": 24170, "Islamic": 26824, "\u2581Additional": 15992, "\u2581solely": 10045, "icked": 9585, "\u2581grief": 18623, "\u2581vom": 21019, "volt": 37865, "\u2581Pastor": 38357, "\u2581hive": 35982, "\u2581ancestors": 18769, "\u2581Def": 2997, "\u2581Millennium": 26240, "alla": 30416, "\u2581Genius": 32663, "bitious": 14329, "\u2581Gomez": 33332, ",)": 35852, "\u2581populace": 39104, "iscopal": 42623, "\u2581trave": 10261, "wk": 43122, "uben": 44737, "CHECK": 50185, "using": 3601, "\u2581Schwarz": 34936, "\u2581scorp": 47495, "\u2581Well": 3995, "\u2581Give": 13887, "\u2581inflammatory": 23861, "\u2581bible": 41270, "\u2581touching": 15342, "\u2581gorilla": 45415, "\u2581hideous": 42370, "ate": 479, "\u2581Box": 8416, "gre": 16795, "\u2581hors": 45435, "\u2581EVENTS": 22500, "\u2581distingu": 9519, "\u2581General": 3712, "\u2581appalling": 34231, "\u2581endot": 46811, "\u00f9": 282, "\u2581inh": 25884, "\u2581guest": 8420, "\u2581ownership": 9339, "\u2581coins": 10897, "\u2581conform": 17317, "\u2581Playing": 24012, "\u2581blending": 34964, "\u2581athletics": 35792, "\u2581utopian": 49779, "fires": 27413, "\u2581Rated": 50050, "\u2581enclave": 49943, "incinnati": 15231, "\u25811942": 22559, "\u2581Rage": 21764, "Making": 23975, "onet": 36924, "\u2581charges": 4631, "\u2581weapon": 4383, "PM": 5969, "\u2581Compare": 27915, "\u2581ante": 29793, "onymous": 6805, "orean": 29557, "\u2581\u00c2\u0142\u00c2\u0142": 47755, "\u2581counting": 14244, "\u2581bacterial": 23563, "\u2581cleans": 20759, "\u2581stereotype": 31341, "\u2581usefulness": 37597, "\u2581Tale": 17489, "\u2581trajectory": 23043, "ogenesis": 26009, "Fr": 6833, "ishly": 29836, "\u2581misogyny": 36209, "\u2581patron": 19787, "\u2581fixture": 29321, "\u2581Civic": 31694, "\u2581Lok": 36962, "\u2581fluorescent": 42410, "olo": 14158, "MHz": 26084, "23": 2055, "\u2581peripher": 18476, "\u2581hooks": 26670, "\u2581Pyrrha": 34487, "\u2581),": 10713, "Region": 47472, "bag": 21555, "\u2581heading": 9188, "\u2581Speaking": 21494, "\u2581Aboriginal": 26533, "\u2581Reloaded": 33215, "\u2581stitching": 49046, "\u2581Concepts": 50154, "\u2581affiliate": 17476, "EEK": 33924, "\u2581atomic": 17327, "dale": 14698, "\u2581Treasury": 13520, "mails": 26266, "81": 6760, "\u2581communist": 20656, "\u2581Cove": 39635, "Spider": 41395, "Cast": 19349, "\u2581Deg": 26006, "rival": 43272, "\u2581wanting": 10392, "Port": 14025, "\u2581membranes": 43548, "422": 44462, "\u2581Mode": 10464, "\u2581Hour": 19224, "\u2581Constantin": 41867, "gar": 4664, "\u2581rows": 15375, "\u2581remainder": 17776, "priv": 13877, "312": 28071, "rolling": 18987, "\u2581Honor": 21172, "\u2581geometry": 23040, "254": 25071, "teenth": 20384, "\u2581potions": 28175, "\u2581carries": 10833, "umably": 31404, "\u2581Lat": 5577, "\u2581\u00c2\u00b7": 14229, "\u2581bullpen": 35194, "\u2581implants": 35324, "\u2581Cry": 8253, "\u2581Cic": 37313, "\u2581lucrative": 23059, "\u2581Ibn": 29476, "Ian": 37877, "\u2581bitter": 13023, "\u2581rapt": 38505, "\u00c3\u00afve": 38877, "\u2581Mormons": 33104, "\u2581pornography": 18485, "ochet": 49680, "\u2581Hendricks": 42577, "\u2581Pog": 49075, "\u2581regul": 3576, "\u2581default": 4378, "emies": 5191, "\u2581smell": 8609, "\u2581ninety": 38090, "\u2581Windsor": 31662, "\u2581disturbances": 38723, "\u2581Explosion": 45843, "femin": 33695, "\u2581cringe": 50124, "\u2581chopped": 20821, "erker": 35880, "\u2581Soldiers": 28280, "lean": 13188, "\u2581Plans": 30406, "\u2581Construct": 28508, "\u2581Bang": 9902, "\u2581plac": 22058, "\u2581incompetence": 39775, "\u2581fruitful": 44575, "\u2581Soon": 15995, "\u2581declines": 24560, "chwitz": 36398, "\u2581legions": 44496, "\u2581Publishers": 43504, "Done": 45778, "\u2581dial": 6081, "\u2581Smash": 18315, "Phones": 32313, "\u2581mitochondrial": 32974, "nec": 33085, "\u2581fireball": 46917, "ruciating": 48505, "\u2581conducive": 45746, "hammad": 14976, "\u2581researching": 24215, "\u2581Dash": 16290, "\u2581GN": 15585, "\u2581rushing": 15896, "ic": 392, "\u2581jailed": 22260, "\u2581retaining": 26746, "\u2581bubbles": 25138, "\u2581opens": 9909, "hews": 40746, "\u2581trials": 9968, "78": 3796, "\u2581bases": 12637, "\u2581lettuce": 39507, "Article": 15007, "\u2581superhero": 17444, "\u2581McD": 23495, "gc": 36585, "\u2581detection": 13427, "pin": 11736, "\u2581allege": 33932, "\u2581Susp": 32023, "\u2581early": 2004, "\u2581Ruby": 10989, "oven": 16307, "\u2581Wal": 6546, "\u2581Make": 6990, "Tim": 15068, "\u2581iv": 21729, "\u2581Jets": 14829, "660": 39986, "\u2581attention": 3342, "FOR": 13876, "upiter": 21352, "\u2581smartest": 44831, "\u2581Scroll": 17529, "\u2581timetable": 40122, "\u2581popul": 16696, "\u2581pressure": 3934, "\u2581governed": 21926, "\u2581Daniels": 28263, "\u2581RR": 26168, "\u2581authentication": 18340, "\u2581booth": 18701, "NH": 33964, "confidence": 39846, "\u2581accomplishments": 26617, "\u2581gu": 1016, "\u2581ASC": 25501, "uristic": 28016, "asion": 4348, "\u2581highlights": 11431, "AU": 26931, "=": 129, "EA": 16513, "\u2581Popular": 22724, "\u2581insurgent": 46163, "\u2581Kinect": 48980, "\u2581demonstrated": 9656, "\u2581Stevenson": 38782, "\u2581Opportun": 25023, "\u2581Locke": 34677, "\u2581priests": 17446, "\u2581caused": 4174, "=[": 41989, "\u2581crooked": 45672, "\u2581casting": 13193, "Valid": 47240, "\u2581mascara": 48531, "\u2581umb": 20911, "\u2581numer": 5571, "\u2581sch": 5614, "\u2581Ottawa": 14175, "\u2581fields": 7133, "\u2581Mr": 1871, "ho": 8974, "\u2581dried": 16678, "\u2581cinema": 22142, "232": 24440, "\u2581Alpha": 13096, "\u2581Marty": 29977, "\u2581appropriated": 32417, "quished": 39838, "\u2581APR": 40511, "\u2581SEA": 41168, "!?\"": 42821, "\u2581looms": 46335, "Several": 15046, "\u2581lineman": 33258, "\u2581denominations": 49836, "\u2581tam": 21986, "\u2581harmony": 22572, "\u2581ensemble": 34650, "\u2581February": 4046, "\u2581Tony": 8933, "\u2581Methods": 25559, "\u2581modifications": 19109, "\u2581Savior": 32688, "arious": 27230, "zer": 9208, "Ta": 38687, "viation": 47726, "Alert": 36521, "\u2581Request": 19491, "\u2581Cors": 27079, "\"],": 33217, "\u2581occupies": 39086, "\u2581immediate": 7204, "\u2581activated": 14007, "insured": 28510, "\u2581measurement": 15659, "avering": 42711, "roleum": 22046, "\u2581viol": 2036, "\u2581Dreams": 21628, "\u2581oun": 16204, "\u2581chef": 21322, "\u2581perverse": 43161, "\u2581GHz": 26600, "\u2581lun": 14779, "\u2581Tanz": 34870, "\u00c3\u00a8re": 36080, "\u2581minutes": 2532, "\u2581meet": 1927, "\u2581goal": 3162, "\u2581accur": 4532, "\u2581chall": 2633, "\u2581roof": 9854, "session": 29992, "\u2581Mayer": 34097, "\u2581Bangkok": 35108, "elson": 10252, "\u2581Methodist": 38130, "\u2581Expedition": 38177, "\u2581AMA": 38369, "\u2581Haz": 17165, "\u2581Dex": 16851, "natural": 11903, "\u2581watches": 16961, "\u2581256": 17860, "lar": 21782, "\u2581SHAR": 39326, "\u2581Colombian": 40452, "\u2581introductory": 34083, "\u2581NSW": 23539, "duino": 24594, "\u2581wastewater": 42174, "\u2581hampered": 42730, "\u2581Ventura": 43305, "\u2581scalable": 43966, "antic": 5210, "\u2581admin": 13270, "brace": 46666, "\u2581Augustus": 48440, "\u2581limestone": 48621, "\u2581joystick": 49586, "\u2581cock": 7641, "\u2581premise": 18760, "riminal": 22258, "\u2581minds": 9118, "Normally": 43726, "\u2581Shanghai": 21966, "\u2581alienation": 45085, "\u2581rural": 10117, "\u2581'.": 45403, "\u2581Ranch": 24677, "\u2581autistic": 33787, "\u2581dug": 18836, "hours": 24526, "\u2581cramped": 43396, "ultural": 8697, "lio": 48691, "\u2581Hammer": 18379, "\u2581Corridor": 49095, "\u2581Depression": 22584, "\u2581Southampton": 30136, "iqueness": 46865, "\u2581concerted": 39175, "\u2581Local": 10815, "Hyper": 38298, "\u2581PH": 9471, "\u2581Kanye": 27876, "500": 4160, "\u2581pedoph": 27807, "\u2581constraints": 17879, "outer": 39706, "\u2581Editorial": 39626, "\u00e4\u00ba": 12960, "\u2581ARE": 16087, "\u2581suscept": 18264, "\u2581slog": 25902, "\u2581Bac": 35684, "\u2581Berk": 35696, "SI": 11685, "Veh": 37971, "\u2581necessities": 42019, "\u2581metabolites": 49675, "\u2581dissatisfied": 44556, "\u2581blew": 18049, "\u2581verifying": 45606, "\u2581medi": 17058, "\u2581Hassan": 24586, "ipation": 25958, "thro": 26211, "\u2581WWE": 15348, "\u2581sou": 24150, "\u2581lvl": 33410, "\u2581MO": 13171, "True": 17922, "itizens": 34201, "above": 29471, "\u2581reckon": 43952, "\u2581KILL": 45358, "her": 473, "\u2581embroiled": 46868, "\u2581road": 3076, "\u2581Egg": 14663, "\u2581Voldemort": 26212, "\u2581fluct": 19281, "\u2581assure": 19933, "\u2581Hayes": 25210, "called": 7275, "\u2581external": 7198, "\u2581pump": 9002, "aired": 9921, "\u2581Pony": 30478, "\u2581These": 2413, "olicy": 21525, "\u2581exp": 1134, "VERT": 15959, "\u2581possessing": 25667, "\u2581Moderate": 43769, "\u2581Glock": 45253, "\u2581noticeable": 19888, "redo": 48555, "\u2581Libyan": 28762, "\u00c2\u00a3": 15089, "Country": 34022, "\u2581walked": 6908, "Steel": 39908, "\u2581hero": 4394, "\u2581everybody": 7389, "core": 7396, "comes": 9089, "\u2581buttons": 12264, "\u2581impart": 23654, "\u2581bleak": 31043, "\u2581drifting": 38294, "\u2581muddy": 39186, "\u2581majorities": 44084, "prep": 46113, "awaru": 39109, "ARGET": 46196, "\u2581Javier": 44593, "\u2581cash": 5104, "\u2581flying": 7449, "\u2581enzymes": 29221, "ru": 723, "62": 5338, "\u2581gentle": 10397, "\u2581powder": 12014, "iov": 16765, "\u2581unic": 28101, "Stud": 13108, "\u2581analyzing": 22813, "floor": 28401, "Average": 26388, "\u2581wards": 32811, "\u2581suffer": 8760, "orative": 36579, "atham": 37621, "rocal": 43371, "\u2581Scrib": 44570, "\u2581commemor": 28824, "\u2581Scarlett": 45147, "\u2581gluc": 14283, "Pear": 46363, "\u2581expressly": 27563, "\u2581Di": 6132, "\u2581Stras": 47662, "\u2581hiking": 24623, "\u2581Frieza": 48181, "\u2581supervisors": 36621, "imsy": 48396, "\u2581generational": 48938, "\u2581Til": 40523, "\u2581aesthetics": 35532, "\u2581volunteer": 14005, "\u2581Draw": 15416, "alian": 7300, "\u2581Mt": 18733, "amazon": 33204, "Past": 34634, "ruly": 34816, "\u2581Ethiopia": 31693, "\u2581dictate": 27962, "Cash": 35462, "\u2581Nass": 38843, "\u2581antennas": 43914, "\u2581honour": 15494, "\u2581accommodating": 49490, "\u2581Mond": 27429, "\u2581ey": 2027, "\u2581along": 1964, "\u2581propag": 9029, "ole": 2406, "\u2581Old": 5807, "\u2581Pe": 2732, "\u2581physically": 10271, "\u2581delayed": 11139, "Array": 19283, "\u2581Cole": 11869, "\u2581Ethics": 25193, "esque": 29040, "aint": 3014, "\u2581positions": 6217, "SR": 12663, "\u2581deposition": 32654, "\u2581Nikki": 34209, "ilitating": 34972, "Dub": 37691, "ptives": 44004, "\u2581thrill": 28677, "\u2581Dres": 40677, "FINE": 30041, "ometown": 19292, "\u2581\u00ce\u00bcg": 44516, "\u2581slut": 33627, "qs": 48483, "\u2581wrinkles": 49492, "rollers": 36768, "\u2581configure": 17526, "rust": 11570, "\u2581jeopardy": 38707, "ortion": 5918, "arsity": 45927, "eway": 16273, "\u2581netted": 49504, "\u2581Gem": 15770, "\u2581orphans": 50314, "\u2581pr": 879, "\u2581competitive": 7707, "\u2581Thou": 34149, "\u2581sudden": 4903, "\u2581flips": 46072, "\u2581AIR": 31701, "\u2581ste": 2977, "\u2581estim": 4060, "\u2581mathematic": 33262, "een": 6530, "cluded": 10442, "iri": 14884, "\u2581lover": 18955, "regular": 16439, "\u2581phone": 3173, "\u2581Ave": 12862, "\u2581Sacramento": 19476, "\u2581explores": 25510, "\u2581Broncos": 16683, "\u25811600": 26244, "\u2581ga": 32087, "regor": 32389, "\u2581\u00e2\u0136\u013e\u00e2\u0136\u0122\u00e2\u0136\u0122": 35407, "\u2581inventions": 39506, "\u2581lantern": 41308, "\u2581Two": 5031, "\u2581landlord": 17436, "\u2581Gund": 23424, "\u2581antics": 39444, "In": 919, "\u2581Terminal": 24624, "inement": 21929, "\u2581Guns": 20524, "\u2581announced": 3515, "home": 11296, "\u2581Moz": 28137, "\u2581Jazeera": 32510, "\u2581Exam": 36010, "\u2581Hamilton": 11683, "\u2581Dexterity": 40638, "\u2581buffet": 44804, "Iss": 27839, "\u2581recycling": 26015, "\u2581Lucia": 48259, "\u2581seen": 1876, "\u2581till": 10698, "Both": 10366, "\u2581Complete": 13349, "\u2581Kang": 27605, "finals": 32190, "\u2581backlash": 19236, "\u2581Clone": 30799, "intern": 23225, "\u2581recursive": 45216, "\u2581solicitor": 48810, "\u2581propelled": 40491, "oggle": 20359, "\u2581APPLIC": 39522, "\u2581redd": 14789, "\u2581Pine": 23177, "\u2581novels": 16223, "\u2581sv": 38588, "\u2581calculus": 41544, "\u2581Ampl": 44175, "union": 24693, "idents": 3332, "\u2581Find": 10039, "lon": 15096, "jar": 9592, "\u2581commander": 11662, "News": 10081, "\u2581collaborated": 38362, "\u2581prenatal": 43329, "\u2581Lutheran": 43873, "\u2581meager": 49954, "\u2581params": 42388, "\u2581328": 39194, "\u2581WW": 13606, "\u2581cohort": 20913, "\u2581outfield": 28408, "amar": 39337, "\u2581rede": 21560, "\u2581McConnell": 18285, "holes": 28540, "\u2581swimming": 15000, "\u2581glorious": 21241, "\u2581Advisor": 35500, "\u2581Karma": 32749, "\u2581amplified": 37580, "\u2581Georgian": 45363, "\u2581frivolous": 48562, "\u2581Custom": 8663, "\u2581genitals": 35954, "\u00e2\u0122\u00a6.\"": 50349, "\u2581reliably": 27096, "\u2581Shaw": 18294, "issions": 7818, "mate": 9931, "Rub": 21413, "\u2581airstrike": 46605, "\u2581sheets": 15848, "edly": 49389, "\u2581Protestants": 41814, "ontent": 38665, "\u2581incompatible": 27395, "\u2581hi": 23206, "XM": 37744, "iane": 46571, "\u2581coasts": 48699, "ikers": 25014, "\u2581intrinsically": 48777, "PART": 30810, "\u2581methods": 5151, "\u2581anten": 17044, "HUD": 28511, "\u2581soldier": 10787, "wrapper": 48654, "\u2581quake": 36707, "\u2581yuan": 34948, "\u2581deceptive": 34137, "\u2581Geh": 49689, "\u2581coupons": 46073, "ract": 1075, "xtap": 43016, "eller": 12469, "itating": 21813, "clud": 859, "\u2581soon": 2683, "\u2581opener": 22097, "irement": 24716, "ends": 2513, "Score": 26696, "\u2581outfits": 27756, "\u2581Slim": 34300, "\u2581Capitalism": 42779, "\u2581rejuven": 46935, "\u2581slick": 29496, "\u2581Evolution": 15916, "\u2581licens": 8341, "\u2581eclipse": 25973, "orters": 3917, "\u2581sustained": 12706, "NOTE": 16681, "angled": 22494, "\u2581voy": 23392, "\u2581Chong": 46993, "\u2581Cover": 17647, "otes": 6522, "register": 30339, "\u2581wait": 4144, "haired": 30073, "\u2581warped": 43163, "ast": 560, "ten": 1553, "Broad": 30608, "focus": 37736, "ipper": 14811, "\u2581Teddy": 29446, "\u2581attendants": 46438, "\u2581SB": 18157, "\u2581During": 5957, "binding": 30887, "\u2581fuss": 34398, "pak": 41192, "SEA": 46988, "\u2581emptiness": 49434, "\u2581REL": 29850, "\u2581ask": 1366, "\u2581cris": 4543, "\u2581Moral": 39121, "ibe": 32539, "\u2581413": 46719, "cry": 20571, "\u2581Sachs": 25259, "\u2581gained": 8719, "\u2581Reaper": 29346, "\u2581Stru": 34988, "\u2581receiving": 6565, "\u2581nanop": 46762, "\u2581additives": 48449, "\u2581ATK": 24627, "\u2581hoc": 39259, "opian": 37649, "Hal": 40303, "\u2581Instagram": 10868, "\u2581SO": 12910, "arak": 30548, "\u2581Chain": 21954, "\u2581plainly": 30824, "Les": 35983, "human": 10835, "\u2581Rost": 48407, "\u2581businessman": 19935, "\u2581Cher": 19406, "\u2581strong": 2014, "CI": 25791, "Few": 32452, "\u2581undecided": 39612, "gment": 5255, "Washington": 17503, "\u2581RBI": 21049, "\u2581shortcuts": 33054, "\u2581vaccine": 12420, "aphael": 34990, "\u2581Gamergate": 37438, "\u2581jun": 10992, "\u2581meets": 11286, "\u2581trails": 19297, "Es": 23142, "287": 27901, "\u2581atrocities": 27918, "\u2581Gregg": 33843, "utor": 38510, "\u2581Franch": 41806, "\u2581Jace": 49775, "\u2581Corporate": 26141, "\u2581Thr": 16384, "Earn": 49826, "\u2581seemed": 4048, "zens": 8348, "zees": 43828, "\u2581Ecology": 40079, "\u2581coales": 46165, "\u2581bisexual": 24350, "\u2581formatting": 33414, "ensible": 27440, "\u2581Atomic": 29077, "\u2581sulfur": 37503, "vote": 27358, "itto": 37707, "\u2581Adapt": 30120, "\u2581complexities": 42393, "\u2581futures": 25751, "\u2581Starfleet": 43684, "\u2581Workshop": 26802, "\u2581moth": 44501, "ict": 814, "\u2581recognized": 8119, "aneously": 27784, "\u2581airspace": 34317, "expected": 40420, "arettes": 13991, "\u00a5\u0140": 14046, "\u2581boil": 20768, "ach": 721, "]": 161, "\u2581garment": 30695, "\u2581surging": 44399, "\u2581Argentina": 16620, "466": 42300, "\u2581INT": 17929, "\u2581Fair": 7112, "\u2581limits": 7196, "\u2581kits": 19284, "zzle": 26514, "\u2581PCB": 28801, "\u2581culmination": 41190, "ictional": 47374, "ndum": 11122, "editor": 35453, "\u2581standard": 3311, "\u2581impat": 28290, "ilyn": 38121, "Increase": 46991, "\u2581Tid": 49058, "oliberal": 28626, "\u2581Lawn": 46108, "endale": 41248, "\u2581coaches": 11171, "\u2581INC": 19488, "efe": 22622, "\u2581forcing": 10934, "LIB": 40448, "\u2581invitations": 42952, "\u2581ay": 38863, "\u2581Returns": 16510, "CR": 9520, "\u2581ready": 3593, "\"-": 26894, "\u2581discriminating": 48313, "\u2581inspector": 24211, "\u2581ridicule": 38465, "\u00c4\u0123": 10336, "\u2581intention": 6879, "\u2581Guest": 22459, "adv": 32326, "\u2581Blaster": 33507, "\u2581secretaries": 49532, "\u2581Rue": 45464, "\u2581deem": 32536, "finder": 22906, "\u2581dun": 12675, "\u2581109": 16104, "uss": 1147, "\u2581peanut": 26737, "Ros": 35841, "\u2581USD": 11504, "\u2581Burr": 38274, "\u2581sneak": 20629, "2019": 23445, "\u2581accepting": 12699, "\u2581circles": 13433, "\u2581Rivers": 18381, "berries": 20954, "uebl": 45850, "\u2581Tee": 49451, "ensions": 5837, "ages": 1196, "Japanese": 25425, "\u2581Edited": 34313, "\u2581berries": 36423, "\u2581autumn": 23709, "\u2581inconvenient": 37614, "\u2581reiterate": 49953, "tions": 45341, "\u2581IPv": 26062, "\u2581Catherine": 22679, "\u2581blaze": 31360, "\u2581commitment": 8002, "initely": 13099, "\u2581exterior": 20998, "iku": 28744, "\u2581cookies": 14847, "\u2581Dian": 19427, "mediate": 13958, "Hi": 17351, "\u2581Oz": 18125, "\u2581LSU": 28179, "\u2581disco": 4756, "never": 12182, "\u2581retrieved": 29618, "\u2581Tribunal": 31290, "\u2581criterion": 34155, "\u2581Hip": 29538, "\u2581289": 39003, "\u2581stroll": 41461, "\u2581formulated": 34492, "\u2581interpre": 16896, "\u2581garrison": 45517, "\u2581ceilings": 46027, "\u2581inefficient": 31005, "\u2581Amy": 14336, "quite": 37222, "\u2581nom": 4616, "\u2581Seeking": 48261, "\u2581concepts": 10939, "\u2581experimental": 12093, "\u2581tid": 29871, "\u2581unim": 28519, "\u2581living": 2978, "\u2581Indian": 4043, "\u2581Deb": 9066, "Prim": 23929, "674": 45486, "N": 146, "\u2581soft": 2806, "\u2581Pryor": 45451, "\u2581hump": 49880, "\u2581shelters": 23730, "\u2581Russians": 13335, "\u2581Nig": 13833, "ptic": 17560, "Train": 44178, "Custom": 15123, "\u2581miser": 18891, "\u2581expire": 24365, "ctory": 26078, "sd": 21383, "\u2581youtube": 35217, "\u2581cit": 15534, "\u2581brid": 38366, "qv": 44280, "\u2581contribute": 8777, "ORGE": 49798, "omics": 32095, "\u2581delegates": 15366, "\u2581forests": 17140, "artment": 1924, "\u2581passive": 14614, "fecture": 36738, "\u2581sympathy": 20343, "\u00e2\u0122\u00a6.": 11681, "Whit": 43718, "\u2581ankle": 19948, "\u2581Wild": 6284, "\u2581rall": 16993, "rooms": 9750, "Education": 41284, "\u2581pressed": 12171, "imentary": 39152, "\u2581Jindal": 49917, "swick": 31062, "\u2581nascent": 45520, "\u2581fost": 26647, "\u25810004": 38427, "\u2581ages": 9438, "phen": 31125, "\u2581Pharmac": 38009, "\u2581miles": 4709, "zy": 7458, "Cour": 25978, "trump": 41055, "\u2581quizz": 48359, "\u2581constellation": 38813, "\u2581lifts": 27204, "gio": 27870, "oug": 20906, "\u2581eyebrow": 38321, "\u2581vim": 44008, "\u2581unmarked": 46892, "\u2581primary": 4266, "\u2581Rookie": 36696, "\u2581Thor": 13103, "camp": 16645, "\u2581Nigeria": 19499, "\u2581ART": 24379, "\u2581scholarships": 32156, "ewski": 46252, "\u2581SH": 6107, "\u2581sens": 3155, "eries": 10741, "\u2581basically": 6310, "\u2581DNA": 7547, "spot": 20586, "\u2581VIP": 24892, "vell": 29434, "\u2581Katherine": 32820, "\u2581Ko": 17735, "reset": 42604, "tml": 20470, "\u2581detrim": 22417, "Connector": 34626, "||||": 42311, "oves": 5342, "\u2581Apocalypse": 21409, "Ryan": 21969, "\u2581polic": 1926, "pload": 7405, "\u2581conj": 11745, "\u2581REG": 23438, "\u2581REALLY": 36514, "iles": 3016, "Ts": 33859, "\u2581preached": 38838, "\u2581multif": 43644, "artifacts": 50280, "\u2581Permanent": 36915, "\u2581Claudia": 50315, "\u2581charism": 25449, "\u2581cousins": 28807, "\u2581nowadays": 26861, "\u2581analogous": 34758, "\u2581Nau": 50172, "\u2581Saying": 49743, "\u2581well": 981, "\u00c3\u0125\u00c3\u0124\u00c3\u0125\u00c3\u0124\u00c3\u0125\u00c3\u0124\u00c3\u0125\u00c3\u0124\u00c3\u0125\u00c3\u0124\u00c3\u0125\u00c3\u0124\u00c3\u0125\u00c3\u0124\u00c3\u0125\u00c3\u0124\u00c3\u0125\u00c3\u0124\u00c3\u0125\u00c3\u0124\u00c3\u0125\u00c3\u0124\u00c3\u0125\u00c3\u0124\u00c3\u0125\u00c3\u0124\u00c3\u0125\u00c3\u0124\u00c3\u0125\u00c3\u0124\u00c3\u0125\u00c3\u0124": 23191, "Quote": 25279, "\u2581spiral": 23743, "\");": 15442, "cash": 30451, "IAN": 16969, "\u2581pizz": 38849, "makes": 49224, "@@": 12505, "\u2581glimps": 41327, "\u2581Nieto": 49884, "rocket": 30532, "\u2581phenomenon": 10834, "\u2581Southwest": 24421, "\u2581orcs": 46549, "Ns": 47604, "onding": 42804, "ias": 4549, "\u2581instit": 6214, "\u2581teachings": 19665, "ouse": 1177, "\u2581vis": 1591, "\u2581Trial": 22061, "\u2581Truck": 24993, "umbing": 28250, "condition": 31549, "\u2581Dro": 21146, "\u2581Mozilla": 29359, "\u2581tucked": 29880, "\u2581cyn": 19869, "FFFF": 29413, "chal": 38110, "\u2581THIS": 12781, "opath": 18670, "ibur": 38717, "\u2581enchantment": 43807, "\u2581Slot": 32127, "hander": 44611, "753": 44651, "\u2581endangered": 22801, "\u2581Gra": 7138, "\u2581paralle": 9416, "\u2581Telegraph": 21922, "\u2581eats": 25466, "really": 27586, "\u2581Duc": 24266, "\u2581fa": 24786, "Knowing": 45749, "DEBUG": 30632, "\u2581figure": 3886, "ackle": 20624, "uberty": 34338, "CVE": 31537, "\u2581Cyrus": 34406, "used": 1585, "cm": 11316, "Compared": 44770, "ickey": 40490, "ement": 1073, "Cong": 18750, "themed": 27067, "\u2581thicker": 29276, "\u2581jokes": 14633, "\u2581Princ": 14218, "!\",": 40855, "\u2581DAM": 29607, "\u2581Pigs": 49311, "\u2581transparency": 14003, "\u2581coward": 26870, "itbart": 17969, "\u2581rewarded": 21046, "\u2581Madagascar": 46795, "cision": 16106, "\u2581shaving": 38114, "lan": 9721, "Legal": 38364, "\u2581Wear": 27640, "\u2581Mehran": 42659, "\u2581Pattern": 24040, "\u2581ow": 12435, "\u2581attribut": 24649, "\u2581arcane": 34463, "\u2581ALSO": 36013, "vable": 23866, "\u2581initialization": 37689, "\u2581Canadiens": 33765, "\u2581Boll": 43580, "\u2581Frankenstein": 45839, "atto": 45908, "Ir": 23921, "ep": 639, "rib": 923, "\u2581landed": 11507, "hist": 10135, "\u2581Parties": 32125, "\u2581unarmed": 24371, "\u2581Serv": 3217, "vironment": 2569, "\u2581lap": 14880, "\u2581Bosh": 42877, "\u2581seriousness": 32196, "\u2581negativity": 45175, "ui": 9120, "ergus": 13708, "\u2581cy": 3176, "uable": 7254, "\u2581Phys": 8788, "\u2581Biblical": 31853, "\u2581east": 7728, "\u2581},": 9065, "\u2581abroad": 10623, "\u2581Auth": 26929, "\u2581outage": 46382, "\u2581belts": 28718, "Moscow": 49858, "\u2581Viet": 8831, "ework": 6534, "\u2581ink": 16983, "\u2581Fest": 26913, "rones": 9922, "orpor": 31251, "\u2581genome": 19371, "fficiency": 35691, "\u2581Leigh": 38008, "577": 49548, "\u2581Publication": 45166, "\u2581embedded": 14654, "olds": 10220, "ishops": 21964, "\u2581Scholar": 11814, "edin": 27253, "\u2581Click": 7015, "EL": 3799, "\u2581orth": 29718, "\u2581sediment": 33509, "\u2581Empty": 33624, "div": 7247, "modules": 18271, "\u2581Kaplan": 37206, "\u2581Oswald": 34475, "\u2581entertainment": 9840, "\u2581revolutions": 37989, "\u2581clich": 35579, "\u2581cited": 9282, "\u2581Formula": 19740, "\u2581permits": 13993, "\u00e3\u0123\u00ae\u00e6": 27133, "\u2581enzyme": 27780, "\u2581Realms": 36075, "\u2581started": 2168, "\u2581PART": 16753, "\u2581silenced": 38187, "Syn": 30035, "\u2581emerges": 25558, "\u2581manic": 38806, "\u2581sizes": 10721, "handed": 13739, "<unused_70>": 71, "ensable": 33548, "\u2581Jol": 39430, "wb": 39447, "Luckily": 42433, "ources": 2304, "\u2581risk": 2627, "\u2581Cheryl": 38059, "\u2581fused": 44055, "\u2581tick": 4479, "\u2581encounters": 17026, "*=-": 48170, "\u2581disrupted": 30168, "\u2581mixes": 33338, "\u2581consisting": 17848, "\u2581Census": 21063, "Mrs": 27135, "\u2581Plat": 32816, "piece": 12340, "\u2581subdu": 35142, "\u2581Rankings": 40385, "Cruz": 41912, "\u2581Jak": 25946, "\u2581pursuits": 46069, "philis": 49714, "eu": 12597, "\u2581Lange": 47680, "\u2581Reading": 11826, "Flag": 34328, "\u2581Silva": 23821, "\u2581Juven": 48214, "\u2581tee": 30580, "uned": 40982, "\u2581shame": 10296, "498": 36361, "\u2581Maxim": 39063, "\u2581283": 42133, "\u2581dismantled": 44102, "untarily": 49706, "\u2581justice": 5417, "pause": 32226, "\u2581Contrary": 43708, "\u2581Redmond": 49521, "Writing": 33975, "ascal": 27848, "\u2581Cherokee": 39577, "\u2581soothing": 40937, "Land": 22443, "\u2581lengths": 20529, "*/": 16309, "\u2581Hawks": 23546, "\u2581sexual": 3307, "\u2581continually": 17552, "\u2581longstanding": 30779, "\u2581arresting": 34037, "monds": 42721, "\u2581backpack": 22627, "\u2581deg": 3497, "\u2581Harper": 12787, "\u2581reused": 46924, "\u2581Swan": 21592, "\u2581Gauntlet": 49042, "cki": 49209, "\u2581parcels": 49897, "\u2581\u00e9": 16369, "\u2581pitches": 22522, "unker": 21806, "\u2581?)": 41450, "tto": 34056, "\u2581emer": 3266, "Appearance": 48332, "028": 47058, "\"'": 30644, "\u2581cyclist": 34733, "\u2581Hex": 22313, "\u2581spying": 23750, "Obj": 49302, "Types": 31532, "FX": 17314, "\u2581demonstrate": 10277, "\u2581excited": 6669, "Nevertheless": 29112, "\u2581Kenobi": 46318, "ovi": 47398, "gh": 557, "\u2581Guinness": 41660, "INT": 12495, "RC": 7498, "cache": 23971, "Examples": 27831, "\u2581Conspiracy": 38887, "equipped": 40718, "1200": 27651, "\u2581Rag": 38101, "\u2581motel": 44505, "MC": 9756, "\u2581loudspe": 48893, "\u2581Bernardino": 35781, "\u2581Ta": 12041, "They": 3091, "\u2581fierce": 14901, "\u2581dialogue": 10822, "bled": 9443, "Professor": 25132, "\u2581councillor": 36168, "\u2581Scion": 49733, "onz": 13670, "\u2581clearly": 4185, "\u2581slew": 26992, "\u2581cull": 37530, "\u2581load": 3541, "\u2581RS": 19441, "\u2581Mk": 24899, "\u2581Alphabet": 45796, "\u2581Calls": 27693, "\u2581Luke": 11437, "\u2581heck": 22675, "\u2581Actor": 27375, "\u2581cheated": 37365, "\u2581acknowledgment": 48283, "\u2581Wrath": 28359, "\u2581blowing": 19381, "\u2581separat": 22540, "\u25811935": 30805, "\u2581trains": 13505, "\u2581distances": 18969, "\u2581Summit": 20115, "usting": 32721, "group": 8195, "olini": 43333, "<length_16>": 25, "\u2581brig": 24494, "packing": 41392, "cast": 2802, "\u2581imposed": 10994, "bass": 43034, "\u2581dab": 45654, "\u2581maximizing": 48451, "\u2581crown": 12490, "\u2581train": 4613, "())": 29056, "zan": 15302, "\u2581tweak": 25494, "afa": 28586, "\u2581cry": 4061, "\u2581country": 1600, "hea": 21733, "\u2581reference": 5042, "Rare": 26838, "\u2581stitches": 28197, "\u2581Tib": 16754, "\u2581LDL": 37755, "\u2581Naomi": 40575, "\u2581granting": 21888, "\u2581Ern": 22863, "\u2581Phen": 34929, "\u2581Pitt": 10377, "worn": 34666, "onic": 9330, "\u2581Pipeline": 37810, "\u2581inc": 854, "icky": 17580, "amas": 17586, "odic": 29613, "pipe": 34461, "\u2581j": 575, "quad": 47104, "\u2581Apple": 4297, "\u2581therape": 20195, "\u2581scholarly": 32051, "\u2581gigs": 42400, "\u2581batter": 5085, "\u2581dispar": 14556, "Calif": 19720, "\u2581Laun": 19927, "\u2581Chronic": 40801, "\u2581Tam": 11653, "\u2581strides": 35103, "aceous": 37898, "Serv": 11939, "ainers": 50322, "\u2581com": 502, "\u2581North": 2359, "strous": 22602, "atz": 28007, "\u2581Episcopal": 48479, "\u2581vents": 42878, "\u2581waiter": 46713, "\u2581Maver": 28971, "abb": 6586, "\u2581Krish": 31473, "044": 44078, "<::::>": 33, "\u2581considering": 6503, "\u2581barg": 12929, "\u2581radar": 13529, "\u2581publisher": 10092, "contract": 28585, "\u2581Breakfast": 32276, "\u2581Never": 7337, "\u2581landsc": 25328, "\u2581Developers": 34253, "reve": 37056, "Ins": 20477, "\u2581counterterrorism": 36674, "\u2581charged": 5148, "\u2581wit": 20969, "\u2581Tools": 20104, "\u2581carbs": 33138, "\u2581TIME": 20561, "\u2581bisc": 36329, "immigrant": 39936, "\u2581glitches": 43806, "\u2581Magnetic": 44730, "ori": 10246, "song": 34151, "\u2581gri": 11221, "\u2581plur": 30777, "\u2581emit": 27689, "\u2581{{": 23036, "\u2581gol": 43892, "sil": 18318, "\u2581Premiership": 47536, "\u2581library": 5989, "\u2581Suit": 28972, "\u2581Aur": 15513, "going": 5247, "\u2581regulators": 17300, "\u2581169": 27292, "\u2581instituted": 33055, "\u2581roads": 9826, "\u2581stopping": 12326, "\u2581Biol": 38738, "\u2581depicts": 28640, "\u2581361": 47845, "\u2581SEM": 48704, "\u00e3\u0125\u00af": 25690, "\u2581nearby": 6817, "\u2581projections": 19988, "\u2581Damon": 33673, "ysis": 3198, "\u2581reigning": 40199, "\u2581interchange": 26579, "\u2581conflicted": 46161, "chip": 36003, "\u2581Wast": 33030, "environment": 39087, "\u00ed": 270, "\u2581cum": 11074, "393": 26108, "rave": 5859, "\u2581Lawson": 35993, "raph": 1571, "\u2581rebels": 12770, "\u2581stood": 6305, "PE": 11502, "nn": 20572, "\u2581treatments": 13921, "rophic": 18292, "ECA": 36701, "\u2581rinse": 42246, "\u2581conquering": 50078, "\u2581Main": 8875, "\u2581perceptions": 23675, "\u2581CONTR": 27443, "\u2581Providence": 28420, "More": 5268, "\u2581enjoy": 2984, "\u2581neoc": 30039, "\u2581Cy": 6035, "\u2581flu": 6663, "\u2581ridden": 46816, "\u2581forfeiture": 32176, "aza": 7157, "\u2581law": 1200, "Side": 24920, "\u2581sponsored": 16002, "\u2581kidding": 26572, "\u2581Gy": 18589, "\u2581hypnot": 36681, "\u2581hate": 5566, "sq": 31267, "\u2581platform": 3960, "\u2581Also": 4519, "\u2581underside": 45030, "oday": 4449, "igroup": 47976, "o\u00c4\u0141": 45593, "\u2581canopy": 39519, "\u2581Div": 4878, "\u2581reliance": 24227, "\u00f1": 274, "\u2581limbo": 46109, "\u2581Desire": 41143, "dq": 49607, "\u2581Echo": 21556, "itudes": 10556, "\u2581gam": 9207, "\u2581collaborators": 37987, "\u2581hopping": 47254, "\u2581Luffy": 48248, "Pop": 17080, "most": 1813, "\u2581AP": 3587, "\u2581Fro": 9835, "\u2581hockey": 12318, "orient": 14090, "\u2581inclined": 19615, "'": 107, "\u2581Caps": 23635, "NetMessage": 25294, "\u2581employer": 9850, "Bar": 10475, "\u2581explosions": 23272, "\u2581prose": 27250, "\u2581classrooms": 32680, "Job": 33409, "dating": 38835, "\u2581reunited": 35541, "\u00e3\u0125\u0129\u00e3\u0124\u00a3": 40730, ".?": 40892, "\u2581anguish": 41311, "dose": 34537, "\u2581publicized": 42833, "\u2581Deter": 45660, "\u2581warriors": 17220, "\u2581incapable": 23503, "Includes": 43087, "\u2581CLICK": 49684, "\u2581rip": 18445, "EAR": 17234, "\u2581$_": 40212, "\u2581WC": 28488, "\u2581Mar": 1627, "\u2581temper": 4225, "\u2581cartridge": 27005, "\u2581Entity": 20986, "\u2581neurolog": 22457, "\u2581Samar": 34178, "Bang": 44085, "\u2581mediocre": 30057, "Maximum": 40642, "Hardware": 49966, "\u2581cp": 31497, "color": 8144, "590": 37094, "\u2581bumps": 34130, "484": 34238, "areth": 26760, "jen": 48897, "\u2581Kem": 24955, "\u2581ECB": 36386, "\u2581moss": 42954, "\u2581Rh": 10424, "555": 31147, "ecd": 21243, "\u2581ID": 4623, "011": 28656, "\u2581inverted": 37305, "\u2581wi": 46068, "\u2581society": 3693, "\u2581convoy": 32961, "\u2581governing": 15131, "\u2581stewards": 38131, "Council": 41041, "innamon": 22021, "pb": 40943, "\u2581selecting": 17347, "DP": 6423, "\u2581Hab": 19755, "\u2581Goldstein": 45756, "ot": 414, "\u2581clitor": 48953, "\u2581certainly": 3830, "\u2581swayed": 47733, "\u2581Questions": 20497, "ean": 11126, "\u2581Pet": 4868, "cules": 14031, "\u2581publications": 16226, "\u2581Restaur": 22564, "Prom": 24230, "\u2581Hispanics": 30815, "\u2581escapes": 32796, "ization": 1735, "\u2581Layer": 34499, "\u2581nipple": 46016, "\u2581frontrunner": 50082, "273": 27468, "\u2581dimin": 12211, "\u2581owner": 4971, "\u2581killing": 5271, "\u2581refused": 6621, "\u2581Skies": 39203, "\u2581unh": 14375, "\u2581circumvent": 33357, "\u2581featured": 8197, "dfx": 48854, "\u2581univers": 5921, "\u2581fi": 26013, "\u2581undermines": 37102, "\u2581eroded": 44800, "\u2581Control": 6880, "\u2581locality": 48137, "Hyp": 50027, "\u2581genetic": 8614, "markets": 34263, "\u2581throws": 12643, "olphin": 27262, "aged": 1987, "\u2581achievable": 47830, "\u2581Minneapolis": 20556, "\u2581TT": 26754, "\u2581CBO": 38361, "raper": 38646, "\u2581Ved": 36202, "\u2581inferred": 41341, "\u2581Jenner": 39861, "\u2581Kash": 20679, "\u2581Kush": 19096, "\u2581emails": 7338, "\u2581toggle": 19947, "\u2581ACTION": 40383, "\u2581Dealer": 44581, "\u2581stomp": 32322, "what": 11020, "bool": 30489, "\u2581Plot": 28215, "igs": 9336, "''.": 35485, "\u2581sampled": 35947, "\u2581Men": 6166, "genre": 35951, "\u2581Peggy": 41011, "\u2581stemmed": 45098, "\u2581preferences": 15488, "ertility": 27752, "\u2581roaring": 43271, "ication": 3400, "steamapps": 31982, "\u2581headquarters": 10144, "orbit": 42695, "\u2581hangar": 44439, "asters": 7161, "\u2581worldview": 29182, "\u2581Array": 15791, "\u2581incendiary": 47817, "\u2581Sultan": 37500, "\u2581Pf": 38578, "icted": 5823, "\u2581Mori": 32810, "\u2581SUPER": 33189, "\u2581shuff": 32400, "\u2581disse": 22907, "\u2581areas": 3107, "esty": 9774, "meter": 27332, "Request": 18554, "\u2581insane": 13352, "Tax": 27118, "priced": 30984, "chance": 39587, "\u2581Minor": 15468, "\u00e6\u012b": 33800, "lang": 17305, "\u2581Neptune": 26562, "\u2581oxidation": 37868, "\u2581winner": 8565, "\u25811865": 47902, "\u2581ord": 2861, "\u2581Were": 15277, "Gro": 43022, "ua": 6514, "atern": 9306, "\u2581waits": 28465, "\u2581ABC": 9839, "\u2581legislatures": 38182, "tic": 13471, "ricks": 23807, "\u2581punishments": 35619, "\u2581Trailer": 37024, "BU": 19600, "justice": 31113, "arb": 38140, "haar": 43049, "LOG": 25395, "\u2581Verge": 44600, "endars": 45043, "\u2581frontier": 27681, "ermott": 46288, "\u2581nem": 37046, "\u2581Trooper": 47539, "\u2581salads": 47769, "eter": 2458, "ulz": 37415, "\u2581nos": 43731, "\u2581Giving": 35704, "\u2581poses": 17414, "\u2581midway": 37821, "\u00e1\u00bd": 45596, "\u2581Mour": 24390, "\u2581snacks": 28588, "825": 47439, "Pitt": 47728, "\u2581newspaper": 7634, "ritten": 9209, "\u2581seven": 3699, "fortable": 12166, "\u2581bicy": 12662, "\u2581uranium": 22111, "\u2581coined": 33216, "\u2581bullied": 33733, "\u25811936": 27754, "\u2581angst": 49074, "\u2581Kre": 25833, "ge": 570, "\u25811950": 11546, "\u2581396": 48859, "Labour": 32576, "\u2581Violent": 35716, "written": 15367, "688": 34528, "\u2581Sah": 23083, "\u2581simulations": 27886, "aturdays": 39825, "\u2581worked": 3212, "\u2581tackle": 9862, "LECT": 16880, "\u2581Ultimate": 11266, "\u2581medium": 7191, "\u2581cents": 16160, "effective": 16904, "\u2581stimulus": 19920, "sale": 21479, "Ask": 25315, "Kenn": 39425, "uton": 32995, "\u2581Abel": 42575, "alion": 19376, "\u2581vm": 45988, "\u2581quotations": 50157, "\u2581status": 3823, "aris": 20167, "aved": 9687, "\u2581Bash": 15844, "\u2581thief": 26007, "\u2581Gaz": 21448, "\u2581Kuala": 48981, "\u2581Eve": 12983, "\u2581cho": 1828, "\u2581Domin": 11918, "\u2581restraint": 24697, "hs": 12095, "\u2581Stats": 20696, "SF": 20903, "\u2581Chester": 27044, "alogue": 30427, "\u2581UT": 19356, "\u2581OPT": 39953, "ilee": 40727, "\u2581Starting": 18063, "Five": 20130, "\u2581oneself": 27287, "\u2581>=": 18290, "\u2581laure": 34616, "\u2581Gay": 16114, "Sean": 26509, "\u2581fortress": 28858, "Insert": 44503, "\u2581Council": 4382, "LL": 3170, "Vector": 38570, "\u2581insensitive": 41347, "s": 183, "&": 106, "\u2581scores": 8299, "\u258110": 939, "<unused_95>": 96, "\u2581Glac": 42820, "\u2581relaxation": 34306, "ous": 617, "inations": 7453, "\u2581terrain": 15611, "\u2581altogether": 13419, "\u2581bark": 21506, "\u2581tx": 27866, "aver": 8871, "\u2581Scientist": 33475, "\u2581Tina": 36004, "\u2581102": 15244, "\u2581Guardians": 19853, "\u2581titles": 8815, "\u2581Loss": 22115, "\u2581Lynn": 24969, "uclear": 4117, "Bal": 24698, "\u2581didnt": 42648, "\u2581amput": 40439, "\u2581pengu": 38474, "\u2581Parsons": 36026, "\u2581Moonlight": 40052, "\u2581something": 1324, "\u2581distributions": 24671, "\u2581Neurolog": 49216, "ucing": 25749, "IB": 9966, "\u2581rebuilt": 30181, "Task": 25815, "\u2581171": 28470, "\u2581substituted": 31702, "\u2581differing": 28843, "cffffcc": 32058, "86": 4622, "rake": 33889, "\u2581Chen": 12656, "\u2581sup": 7519, "\u2581Brig": 17018, "Speaking": 13988, "\u2581Meaning": 30664, "\u2581Leonardo": 38184, "\u2581Aadhaar": 47828, "claimed": 12896, "anne": 22053, "\u2581haunting": 36761, "kell": 17265, "\u2581Agric": 15508, "\u2581Twilight": 19816, "haust": 42557, "\u2581Esports": 48616, "\u2581Archae": 32288, "\u2581examines": 28126, "follow": 27881, "Haunted": 47080, "\u2581Webs": 47837, "Requ": 16945, "\u2581cul": 10946, "\u2581abund": 12568, "\u2581dreams": 10726, "struction": 15120, "hall": 18424, "\u2581eligibility": 20170, "\u2581swap": 16176, "67": 3235, "\u2581Hamb": 26276, "\u2581folders": 24613, "\u2581balcony": 29881, "\u2581standalone": 27770, "\u2581filib": 33954, "\u2581WHO": 19595, "\u2581Scar": 12190, "orne": 8654, "essage": 7690, "\u2581Bened": 25761, "\u2581reunion": 30422, "acted": 23901, "\u2581invented": 15747, "tern": 860, "\u2581\u00e2\u0122\u0136": 952, "\u2581murdered": 12965, "\u2581collar": 20009, "([": 27034, "whel": 30714, "\u2581referendum": 11568, "\u2581Mail": 11200, "\u2581Sadd": 20555, "/$": 32725, "olls": 33522, "\u2581conject": 37363, "\u2581Empress": 38571, "\u2581Contemporary": 38799, "\u2581yielding": 39228, "Fal": 41230, "\u2581flattering": 48360, "\u2581RN": 43213, "\u2581right": 927, "Ult": 16402, "\u2581sacrificing": 32799, "Square": 48112, "\u2581Leaving": 38169, "\u2581sprinkled": 49793, "\u2581taco": 47985, "\u2581Ill": 5922, "umed": 19041, "vre": 44034, "\u2581Agenda": 37130, "\u2581Nag": 15297, "\u2581DIRECT": 42343, "\u2581leptin": 49438, "\u2581Zion": 17000, "\u2581Moments": 45310, "\u2581Calvin": 25118, "pick": 27830, "\u2581assumes": 18634, "\u2581Burke": 23360, "\u2581paramilitary": 43643, "\u2581386": 48441, "\u2581declining": 18181, "orget": 28223, "\u2581shoot": 2787, "\u2581Comments": 19603, "Po": 18934, "\u2581TM": 21333, "\u2581invoice": 45559, "ership": 49538, "\u2581basil": 37893, "\u2581crappy": 40906, "\u2581At": 1730, "\u2581fo": 11612, "\u2581backing": 12386, "\u2581Americas": 25834, "\u2581Islam": 3550, "\u2581pissed": 28775, "\u2581openings": 28532, "\u2581Fighters": 29266, "\u2581vulgar": 31117, "\u00cf\u0126": 32931, "Sport": 42677, "\u2581199": 1695, "\u2581drew": 9960, "doc": 15491, "\u2581sacked": 32665, "mos": 16886, "ploma": 35829, "jug": 31862, "\u2581sr": 19778, "\u00c3\u00a9r": 42546, "\u2581strategist": 25752, "oen": 6672, "\u2581caliber": 28240, "\u2581gears": 28814, "\u00e2\u0138\u0133\u00e2\u0138\u0133": 27635, "lich": 33568, "\u2581271": 33898, "\u2581MV": 33048, "Conn": 37422, "\u2581presidents": 19134, "external": 22716, "spective": 49641, "\u2581Sioux": 38004, "\u2581Serious": 32332, "\u2581Postal": 32982, "Cub": 43733, "\u2581makeshift": 34165, "\u2581SX": 44306, "atos": 35593, "\u2581graphics": 9483, "\u2581thirty": 12378, "\u2581Anon": 49448, "\u2581Mario": 10783, "sum": 16446, "iminary": 38530, "\u2581GA": 14646, "Pin": 28449, "killer": 32257, "\u2581Prix": 23933, "\u2581pans": 36310, "\u2581efficacy": 20280, "rito": 39935, "Represent": 40272, "\u2581restaurant": 7173, "\u00f6": 279, "City": 15042, "\u2581beard": 21314, "\u2581Steal": 47343, "\u2581waive": 40408, "\u2581Shapiro": 34135, "ary": 661, "\u2581Veil": 46205, "CHQ": 47932, "\u2581clutching": 48382, "\u2581oxidative": 37837, "\u2581Sie": 49032, "\u2581Deadline": 36055, "pires": 17934, "\u2581LIM": 27665, "\u2581Raspberry": 24345, "\u2581attachments": 32262, "Sir": 22889, "\u2581guesses": 44875, "\u2581\u00c2\u0142\u2581\u00c2\u0142\u2581\u00c2\u0142\u2581\u00c2\u0142\u2581\u00c2\u0142\u2581\u00c2\u0142\u2581\u00c2\u0142\u2581\u00c2\u0142": 45807, "anguage": 9101, "\u2581relied": 17599, "obj": 26902, "\u2581deviations": 47161, "\u25811965": 17773, "\u2581139": 23767, "\u2581crus": 25265, ")\",": 42602, "\u2581records": 4507, "\u2581Staten": 46135, "better": 28004, "\u2581behaved": 39308, "ew": 514, "mic": 9484, "untu": 11258, "\u2581Monk": 28955, "fixed": 34122, "\u00e5\u0127\u012b": 46369, "\u2581IU": 42665, "\u2581perpendicular": 47291, "\u2581cloak": 24218, "\u2581BYU": 37317, "\u2581discussed": 6794, "ophob": 13354, "\u2581understand": 1934, "Days": 38871, "\u2581vows": 36706, "\u00c2\u0142\u00c2\u0142\u00c2\u0142\u00c2\u0142\u00c2\u0142\u00c2\u0142\u00c2\u0142\u00c2\u0142\u00c2\u0142\u00c2\u0142\u00c2\u0142\u00c2\u0142\u00c2\u0142\u00c2\u0142\u00c2\u0142\u00c2\u0142": 39273, "relation": 49602, "\u2581end": 987, "\u0118": 313, "\u2581Panama": 23620, "once": 27179, "\u2581correct": 3477, "\u2581sequence": 8480, "Arc": 24122, "\u2581Aim": 36324, "\u2581Generations": 46104, "\u2581Fiber": 30034, "\u2581Econom": 6784, "\u2581contaminants": 47084, "rose": 13799, "rome": 6099, "args": 22147, "tim": 16615, "roe": 20747, "strike": 33170, "stim": 42104, "\u2581orn": 25423, "wx": 49446, "OPER": 31155, "pg": 6125, "\u2581anatomy": 33550, "missive": 33633, "\u2581decline": 7895, "cyclop": 22974, "AM": 2491, "\u2581asking": 4838, "\u2581Cel": 15349, "Size": 10800, "\u2581undo": 24082, "Shock": 31747, "\u2581skillet": 41407, "\u2581Druid": 32786, "Grid": 41440, "phrase": 34776, "\u2581remembers": 18241, "\u2581Wings": 17431, "eenth": 28218, "\u2581caves": 31024, "\u2581modules": 13204, "\u2581calories": 14754, "\u2581chest": 7822, "\u2581cane": 33110, "\u2581universes": 44852, "YA": 45048, "secut": 4653, "calling": 44815, "\u2581complained": 13933, "\u2581Heights": 20466, "\u2581SP": 6327, "per": 626, "\u2581White": 2736, "\u2581proximity": 20488, "\u2581Squ": 5157, "\u2581Spicer": 26343, "\u2581paints": 32382, "\u2581running": 2592, "owered": 10488, "ince": 1025, "pton": 11073, ".\u00e2\u0122\u0136": 13503, "\u2581initiatives": 15547, "\u2581predictions": 16378, "Breaking": 29550, "isoft": 29820, "ubb": 33771, "Individual": 35493, "\u2581\u00e0\u00a8": 42415, "othy": 14964, "Manchester": 40845, "\u2581elevation": 23011, "Sty": 18817, "\u2581Minute": 38674, "IRED": 37920, "Pro": 3065, "386": 21835, "LAND": 28283, "\u00e3\u0123\u0137": 43458, "told": 44141, "YL": 45549, "\u2581cradle": 49248, "\u2581fraction": 13491, "\u00e3\u0124\u00b3": 24780, "\u2581\"...": 27997, "\u2581compile": 17733, "\u2581bosses": 17418, "\u2581GitHub": 21823, "\u2581CONTROL": 49934, "\u2581kilometres": 24091, "\u2581Egyptians": 32759, "umblr": 15667, "eth": 2889, "\u2581Smoke": 25517, "\u2581TO": 5491, "540": 35106, "\u2581Zin": 37072, "\u2581vice": 8028, "\u2581flavor": 9666, "\u2581delight": 11075, "\u2581Prest": 24259, "pointer": 29637, "\u2581detained": 14948, "\u2581herb": 21148, "\u2581ridiculously": 32972, "\u2581auxiliary": 37520, "\u2581naked": 12206, "\u2581outlining": 37096, "\u2581retri": 37816, "slow": 38347, "\u00e3\u0125\u00bc": 6413, "\u2581Profile": 13219, "feld": 16366, "\u2581revoke": 39142, "\u2581LIN": 43378, "rist": 1686, "Multi": 29901, "ENTION": 45690, "loaded": 14679, "\u2581Clancy": 46356, "\u2581Copy": 17494, "aim": 1486, "oline": 14554, "\u2581Ob": 1936, "\u2581misses": 18398, "\u2581panties": 31672, "\u2581Survival": 20404, "\u2581prevail": 28716, "\u2581Bomb": 14577, "\u2581encouraging": 12678, "Disclaimer": 19719, "ving": 1176, "\u2581Moody": 32237, "\u2581Fernand": 26467, "\u2581seamlessly": 33782, "\u2581Boise": 38931, "\u2581allowed": 3243, "\u2581chill": 20594, "\u2581GH": 24840, "ERN": 28879, "waters": 41656, "Met": 9272, "\u2581Feinstein": 34962, "war": 5868, "\u2581broch": 42079, "Brain": 44788, "\u2581Blind": 24608, "\u2581assist": 3443, "\u2581Wage": 45975, "\u2581diner": 47620, "\u2581Wik": 11246,
[...]
